{
  "version": "1.0",
  "truncation": null,
  "padding": null,
  "added_tokens": [
    {
      "id": 0,
      "content": "<s>",
      "single_word": false,
      "lstrip": false,
      "rstrip": false,
      "normalized": false,
      "special": true
    },
    {
      "id": 1,
      "content": "<pad>",
      "single_word": false,
      "lstrip": false,
      "rstrip": false,
      "normalized": false,
      "special": true
    },
    {
      "id": 2,
      "content": "</s>",
      "single_word": false,
      "lstrip": false,
      "rstrip": false,
      "normalized": false,
      "special": true
    },
    {
      "id": 3,
      "content": "<unk>",
      "single_word": false,
      "lstrip": false,
      "rstrip": false,
      "normalized": false,
      "special": true
    },
    {
      "id": 4,
      "content": "<mask>",
      "single_word": false,
      "lstrip": false,
      "rstrip": false,
      "normalized": false,
      "special": true
    }
  ],
  "normalizer": null,
  "pre_tokenizer": {
    "type": "ByteLevel",
    "add_prefix_space": false,
    "trim_offsets": true,
    "use_regex": true
  },
  "post_processor": {
    "type": "ByteLevel",
    "add_prefix_space": true,
    "trim_offsets": false,
    "use_regex": true
  },
  "decoder": {
    "type": "ByteLevel",
    "add_prefix_space": true,
    "trim_offsets": true,
    "use_regex": true
  },
  "model": {
    "type": "BPE",
    "dropout": null,
    "unk_token": null,
    "continuing_subword_prefix": null,
    "end_of_word_suffix": null,
    "fuse_unk": false,
    "byte_fallback": false,
    "ignore_merges": false,
    "vocab": {
      "<s>": 0,
      "<pad>": 1,
      "</s>": 2,
      "<unk>": 3,
      "<mask>": 4,
      "!": 5,
      "\"": 6,
      "#": 7,
      "$": 8,
      "%": 9,
      "&": 10,
      "'": 11,
      "(": 12,
      ")": 13,
      "*": 14,
      "+": 15,
      ",": 16,
      "-": 17,
      ".": 18,
      "/": 19,
      "0": 20,
      "1": 21,
      "2": 22,
      "3": 23,
      "4": 24,
      "5": 25,
      "6": 26,
      "7": 27,
      "8": 28,
      "9": 29,
      ":": 30,
      ";": 31,
      "<": 32,
      "=": 33,
      ">": 34,
      "?": 35,
      "@": 36,
      "A": 37,
      "B": 38,
      "C": 39,
      "D": 40,
      "E": 41,
      "F": 42,
      "G": 43,
      "H": 44,
      "I": 45,
      "J": 46,
      "K": 47,
      "L": 48,
      "M": 49,
      "N": 50,
      "O": 51,
      "P": 52,
      "Q": 53,
      "R": 54,
      "S": 55,
      "T": 56,
      "U": 57,
      "V": 58,
      "W": 59,
      "X": 60,
      "Y": 61,
      "Z": 62,
      "[": 63,
      "\\": 64,
      "]": 65,
      "^": 66,
      "_": 67,
      "`": 68,
      "a": 69,
      "b": 70,
      "c": 71,
      "d": 72,
      "e": 73,
      "f": 74,
      "g": 75,
      "h": 76,
      "i": 77,
      "j": 78,
      "k": 79,
      "l": 80,
      "m": 81,
      "n": 82,
      "o": 83,
      "p": 84,
      "q": 85,
      "r": 86,
      "s": 87,
      "t": 88,
      "u": 89,
      "v": 90,
      "w": 91,
      "x": 92,
      "y": 93,
      "z": 94,
      "{": 95,
      "|": 96,
      "}": 97,
      "~": 98,
      "¡": 99,
      "¢": 100,
      "£": 101,
      "¤": 102,
      "¥": 103,
      "¦": 104,
      "§": 105,
      "¨": 106,
      "©": 107,
      "ª": 108,
      "«": 109,
      "¬": 110,
      "®": 111,
      "¯": 112,
      "°": 113,
      "±": 114,
      "²": 115,
      "³": 116,
      "´": 117,
      "µ": 118,
      "¶": 119,
      "·": 120,
      "¸": 121,
      "¹": 122,
      "º": 123,
      "»": 124,
      "¼": 125,
      "½": 126,
      "¾": 127,
      "¿": 128,
      "À": 129,
      "Á": 130,
      "Â": 131,
      "Ã": 132,
      "Ä": 133,
      "Å": 134,
      "Æ": 135,
      "Ç": 136,
      "È": 137,
      "É": 138,
      "Ê": 139,
      "Ë": 140,
      "Ì": 141,
      "Í": 142,
      "Î": 143,
      "Ï": 144,
      "Ð": 145,
      "Ñ": 146,
      "Ò": 147,
      "Ó": 148,
      "Ô": 149,
      "Õ": 150,
      "Ö": 151,
      "×": 152,
      "Ø": 153,
      "Ù": 154,
      "Ú": 155,
      "Û": 156,
      "Ü": 157,
      "Ý": 158,
      "Þ": 159,
      "ß": 160,
      "à": 161,
      "á": 162,
      "â": 163,
      "ã": 164,
      "ä": 165,
      "å": 166,
      "æ": 167,
      "ç": 168,
      "è": 169,
      "é": 170,
      "ê": 171,
      "ë": 172,
      "ì": 173,
      "í": 174,
      "î": 175,
      "ï": 176,
      "ð": 177,
      "ñ": 178,
      "ò": 179,
      "ó": 180,
      "ô": 181,
      "õ": 182,
      "ö": 183,
      "÷": 184,
      "ø": 185,
      "ù": 186,
      "ú": 187,
      "û": 188,
      "ü": 189,
      "ý": 190,
      "þ": 191,
      "ÿ": 192,
      "Ā": 193,
      "ā": 194,
      "Ă": 195,
      "ă": 196,
      "Ą": 197,
      "ą": 198,
      "Ć": 199,
      "ć": 200,
      "Ĉ": 201,
      "ĉ": 202,
      "Ċ": 203,
      "ċ": 204,
      "Č": 205,
      "č": 206,
      "Ď": 207,
      "ď": 208,
      "Đ": 209,
      "đ": 210,
      "Ē": 211,
      "ē": 212,
      "Ĕ": 213,
      "ĕ": 214,
      "Ė": 215,
      "ė": 216,
      "Ę": 217,
      "ę": 218,
      "Ě": 219,
      "ě": 220,
      "Ĝ": 221,
      "ĝ": 222,
      "Ğ": 223,
      "ğ": 224,
      "Ġ": 225,
      "ġ": 226,
      "Ģ": 227,
      "ģ": 228,
      "Ĥ": 229,
      "ĥ": 230,
      "Ħ": 231,
      "ħ": 232,
      "Ĩ": 233,
      "ĩ": 234,
      "Ī": 235,
      "ī": 236,
      "Ĭ": 237,
      "ĭ": 238,
      "Į": 239,
      "į": 240,
      "İ": 241,
      "ı": 242,
      "Ĳ": 243,
      "ĳ": 244,
      "Ĵ": 245,
      "ĵ": 246,
      "Ķ": 247,
      "ķ": 248,
      "ĸ": 249,
      "Ĺ": 250,
      "ĺ": 251,
      "Ļ": 252,
      "ļ": 253,
      "Ľ": 254,
      "ľ": 255,
      "Ŀ": 256,
      "ŀ": 257,
      "Ł": 258,
      "ł": 259,
      "Ń": 260,
      "er": 261,
      "en": 262,
      "Ġs": 263,
      "et": 264,
      "Ã¥": 265,
      "Ġo": 266,
      "Ġf": 267,
      "in": 268,
      "or": 269,
      "Ġd": 270,
      "an": 271,
      "Ġm": 272,
      "el": 273,
      "Ã¸": 274,
      "Ġt": 275,
      "Ġa": 276,
      "Ġh": 277,
      "Ġb": 278,
      "il": 279,
      "Ġog": 280,
      "Ġv": 281,
      "ar": 282,
      "st": 283,
      "Ġi": 284,
      "Ġk": 285,
      "Ġp": 286,
      "re": 287,
      "om": 288,
      "ed": 289,
      "li": 290,
      "ing": 291,
      "le": 292,
      "Ġfor": 293,
      "sk": 294,
      "te": 295,
      "Ġg": 296,
      "on": 297,
      "ĠÃ¥": 298,
      "Ġn": 299,
      "Ġtil": 300,
      "kk": 301,
      "Ġer": 302,
      "ter": 303,
      "ra": 304,
      "eg": 305,
      "Ġav": 306,
      "al": 307,
      "un": 308,
      "Ġen": 309,
      "de": 310,
      "Ġsom": 311,
      "ĠpÃ¥": 312,
      "Ġdet": 313,
      "at": 314,
      "ut": 315,
      "ig": 316,
      "es": 317,
      "id": 318,
      "Ã¸r": 319,
      "ene": 320,
      "pp": 321,
      "Ġmed": 322,
      "Ġl": 323,
      "is": 324,
      "kt": 325,
      "as": 326,
      "ver": 327,
      "ler": 328,
      "Ġst": 329,
      "ne": 330,
      "ag": 331,
      "ĠD": 332,
      "ĠS": 333,
      "Ã¦": 334,
      "Ġin": 335,
      "lig": 336,
      "ol": 337,
      "am": 338,
      "Ġat": 339,
      "Ġut": 340,
      "se": 341,
      "ri": 342,
      "jon": 343,
      "and": 344,
      "Ġsk": 345,
      "Ġhar": 346,
      "Ġet": 347,
      "tt": 348,
      "ro": 349,
      "der": 350,
      "kke": 351,
      "Ġj": 352,
      "Ġde": 353,
      "Ã¥r": 354,
      "ste": 355,
      "Ġom": 356,
      "Ġvi": 357,
      "ru": 358,
      "ke": 359,
      "ning": 360,
      "ang": 361,
      "Ġopp": 362,
      "ent": 363,
      "ere": 364,
      "ĠH": 365,
      "Ġgj": 366,
      "ett": 367,
      "ĠM": 368,
      "Ã¦r": 369,
      "Ġ1": 370,
      "Ġden": 371,
      "ks": 372,
      "Ġikke": 373,
      "ur": 374,
      "ĠN": 375,
      "ĠF": 376,
      "Ġfra": 377,
      "isk": 378,
      "Ġ2": 379,
      "Ġre": 380,
      "ĠB": 381,
      "Ġkan": 382,
      "for": 383,
      "gg": 384,
      "Ġr": 385,
      "ĠA": 386,
      "Ġvar": 387,
      "Ġmen": 388,
      "Ġinn": 389,
      "Ġal": 390,
      "je": 391,
      "Ġno": 392,
      "it": 393,
      "ikk": 394,
      "ul": 395,
      "us": 396,
      "ĠT": 397,
      "ak": 398,
      "het": 399,
      "ens": 400,
      "ĠI": 401,
      "ad": 402,
      "ende": 403,
      "omm": 404,
      "asjon": 405,
      "ot": 406,
      "ĠV": 407,
      "ĠE": 408,
      "Ġble": 409,
      "ik": 410,
      "ĠK": 411,
      "be": 412,
      "Ġel": 413,
      "Ġbe": 414,
      "ap": 415,
      "ser": 416,
      "ann": 417,
      "Ġdu": 418,
      "ĠDet": 419,
      "Ġsp": 420,
      "Ġhv": 421,
      "Ġsam": 422,
      "ge": 423,
      "Ġli": 424,
      "Ġseg": 425,
      "enn": 426,
      "Ġe": 427,
      "ve": 428,
      "Ġjeg": 429,
      "Ã¸y": 430,
      "ĠP": 431,
      "Ġbli": 432,
      "sen": 433,
      "ker": 434,
      "od": 435,
      "elig": 436,
      "Ġkj": 437,
      "ĠO": 438,
      "Ġ(": 439,
      "att": 440,
      "unn": 441,
      "ss": 442,
      "mm": 443,
      "ĠL": 444,
      "ĠmÃ¥": 445,
      "Ã¦re": 446,
      "ĠsÃ¥": 447,
      "iv": 448,
      "sÃ¥": 449,
      "elt": 450,
      "ling": 451,
      "ok": 452,
      "Ġvil": 453,
      "Ġover": 454,
      "eng": 455,
      "sp": 456,
      "Ġ20": 457,
      "ell": 458,
      "ist": 459,
      "Ġpro": 460,
      "inn": 461,
      "Ġeller": 462,
      "ord": 463,
      "ort": 464,
      "av": 465,
      "else": 466,
      "ĠR": 467,
      "lo": 468,
      "Ġse": 469,
      "ant": 470,
      "Ġle": 471,
      "Ġetter": 472,
      "âĢ": 473,
      "Ġbru": 474,
      "est": 475,
      "Ġu": 476,
      "ir": 477,
      "Ġbar": 478,
      "Ġun": 479,
      "art": 480,
      "ĠogsÃ¥": 481,
      "ĠG": 482,
      "yr": 483,
      "yn": 484,
      "ft": 485,
      "Ġsi": 486,
      "Ġskal": 487,
      "ĠÃ¥r": 488,
      "Ġkomm": 489,
      "Ġved": 490,
      "ĠfÃ¸r": 491,
      "Ã¸n": 492,
      "ans": 493,
      "Ã¸re": 494,
      "old": 495,
      "beid": 496,
      "ske": 497,
      "ud": 498,
      "ĠJ": 499,
      "Ġkon": 500,
      "Ġny": 501,
      "skap": 502,
      "Ġar": 503,
      "Ã¸k": 504,
      "Ġder": 505,
      "dig": 506,
      "Ã¸p": 507,
      "Ġtr": 508,
      "gj": 509,
      "ert": 510,
      "os": 511,
      "..": 512,
      "iske": 513,
      "Ġsel": 514,
      "all": 515,
      "ff": 516,
      "og": 517,
      "men": 518,
      "Ġand": 519,
      "mer": 520,
      "var": 521,
      "00": 522,
      "ĠvÃ¦re": 523,
      "Ġmer": 524,
      "Ã¸l": 525,
      "Ġnoen": 526,
      "legg": 527,
      "ov": 528,
      "Ġtid": 529,
      "Ġ-": 530,
      "ingen": 531,
      "Ġdette": 532,
      "ine": 533,
      "ers": 534,
      "und": 535,
      "ass": 536,
      "ĠfÃ¥": 537,
      "Ã¦rt": 538,
      "ale": 539,
      "adde": 540,
      "Ġ201": 541,
      "ob": 542,
      "ennom": 543,
      "Ġkl": 544,
      "ĠC": 545,
      "ĠU": 546,
      "Ġandre": 547,
      "Ġnoe": 548,
      "Ġhadde": 549,
      "ygg": 550,
      "Ġdag": 551,
      "ier": 552,
      "Ġunder": 553,
      "Ġblir": 554,
      "sm": 555,
      "akt": 556,
      "lag": 557,
      "vis": 558,
      "itt": 559,
      "ĠNor": 560,
      "em": 561,
      "hold": 562,
      "Ġhel": 563,
      "Ġalle": 564,
      "Ġnor": 565,
      "Ġc": 566,
      "lige": 567,
      "del": 568,
      "ster": 569,
      "lit": 570,
      "lere": 571,
      "Ġman": 572,
      "Ġha": 573,
      "Ġkv": 574,
      "opp": 575,
      "Ġdat": 576,
      "jel": 577,
      "ktig": 578,
      "Ġgod": 579,
      "ksjon": 580,
      "ger": 581,
      "ĠSt": 582,
      "rÃ¥": 583,
      "Ġgjennom": 584,
      "Ġhan": 585,
      "jer": 586,
      "Ġ3": 587,
      "ange": 588,
      "um": 589,
      "Ġkun": 590,
      "Ġmin": 591,
      "Ġselv": 592,
      "ek": 593,
      "vik": 594,
      "âĢĵ": 595,
      "Ġpl": 596,
      "Ġmot": 597,
      "Ġfre": 598,
      "ĠÂ": 599,
      "ĠFor": 600,
      "tte": 601,
      "per": 602,
      "ab": 603,
      "tid": 604,
      "du": 605,
      "Ġda": 606,
      "ĠnÃ¥": 607,
      "dre": 608,
      "let": 609,
      "ien": 610,
      "dr": 611,
      "Ġsli": 612,
      "im": 613,
      "alt": 614,
      "ly": 615,
      "Ġgr": 616,
      "ĠVi": 617,
      "sker": 618,
      "Ġnett": 619,
      "Ġvel": 620,
      "Ġstor": 621,
      "alg": 622,
      "den": 623,
      "dag": 624,
      "ings": 625,
      "eder": 626,
      "inger": 627,
      "Ġann": 628,
      "Ġenn": 629,
      "Ġbil": 630,
      "fÃ¸r": 631,
      "ye": 632,
      "Ġdeg": 633,
      "elle": 634,
      "Ġver": 635,
      "ber": 636,
      "ĠnÃ¥r": 637,
      "Ġbl": 638,
      "Ġeg": 639,
      "Ġdenne": 640,
      "Ġan": 641,
      "ĠhÃ¸y": 642,
      "ner": 643,
      "iser": 644,
      "Ġarbeid": 645,
      "yl": 646,
      "Ġkom": 647,
      "iden": 648,
      "ĠIn": 649,
      "sten": 650,
      "ĠgjÃ¸re": 651,
      "rÃ¸": 652,
      "net": 653,
      "Ġlag": 654,
      "gen": 655,
      "ie": 656,
      "mp": 657,
      "Ġmu": 658,
      "Ġbare": 659,
      "Ġuten": 660,
      "ast": 661,
      "ry": 662,
      "ĠvÃ¦rt": 663,
      "Â»": 664,
      "ater": 665,
      "me": 666,
      "enter": 667,
      "Ġfort": 668,
      "ĠÃ": 669,
      "ult": 670,
      "Ġreg": 671,
      "ten": 672,
      "ede": 673,
      "Ġsy": 674,
      "form": 675,
      "Ġto": 676,
      "Ġmye": 677,
      "ets": 678,
      "Ã¸d": 679,
      "Ġpo": 680,
      "Ġmange": 681,
      "Ġtilb": 682,
      "Ġdel": 683,
      "ven": 684,
      "ette": 685,
      "Ġlitt": 686,
      "ĠÂ«": 687,
      "ic": 688,
      "ĠgjÃ¸r": 689,
      "kker": 690,
      "ark": 691,
      "Ġor": 692,
      "Ġbruk": 693,
      "Ġ19": 694,
      "inner": 695,
      "Ġhver": 696,
      "ekt": 697,
      "Ġhvor": 698,
      "Ġgang": 699,
      "Ġher": 700,
      "kj": 701,
      "Ġbeg": 702,
      "Ġmeg": 703,
      "Ġra": 704,
      "Ġek": 705,
      "rat": 706,
      "ia": 707,
      "kl": 708,
      "Ġsex": 709,
      "tter": 710,
      "ev": 711,
      "Ġfin": 712,
      "no": 713,
      "ninger": 714,
      "Ġtre": 715,
      "ĠbÃ¥": 716,
      "isse": 717,
      "Ġoss": 718,
      "ill": 719,
      "Ġpros": 720,
      "erson": 721,
      "Ġfikk": 722,
      "Ġkont": 723,
      "na": 724,
      "Ġ4": 725,
      "Ġflere": 726,
      "ket": 727,
      "lighet": 728,
      "Ġkommun": 729,
      "det": 730,
      "Ġta": 731,
      "ess": 732,
      "Ġfrem": 733,
      "Ġsl": 734,
      "Ġsammen": 735,
      "sl": 736,
      "he": 737,
      "Ġsin": 738,
      "Ġbet": 739,
      "ĠâĢĵ": 740,
      "ĠÃ¸": 741,
      "Ġhun": 742,
      "utt": 743,
      "ellom": 744,
      "Ġhva": 745,
      "eb": 746,
      "Ġ5": 747,
      "itet": 748,
      "ĠfÃ¥r": 749,
      "hand": 750,
      "ĠDen": 751,
      "jene": 752,
      "ĠDe": 753,
      "ĠmÃ¸": 754,
      "Ġinter": 755,
      "Ġslik": 756,
      "stil": 757,
      "arbeid": 758,
      "res": 759,
      "Ġser": 760,
      "ĠfÃ¸rste": 761,
      "Ġdating": 762,
      "slo": 763,
      "di": 764,
      "Ġmellom": 765,
      "Ġviktig": 766,
      "ĠNorge": 767,
      "ige": 768,
      "ull": 769,
      "enger": 770,
      "Ġforsk": 771,
      "ron": 772,
      "ub": 773,
      "nd": 774,
      "ide": 775,
      "pe": 776,
      "ningen": 777,
      "gang": 778,
      "Ġnye": 779,
      "Ġsm": 780,
      "Ġfors": 781,
      "ĠfÃ¸l": 782,
      "etter": 783,
      "mmer": 784,
      "vet": 785,
      "Ġgrunn": 786,
      "ĠDette": 787,
      "ordan": 788,
      "gi": 789,
      "elsen": 790,
      "Ġ\"": 791,
      "Ġalt": 792,
      "ĠbÃ¥de": 793,
      "Ã¸nn": 794,
      "ĠEn": 795,
      "eld": 796,
      "Ġkunne": 797,
      "Ġsv": 798,
      "ĠsÃ¸": 799,
      "Ġigj": 800,
      "land": 801,
      "Ġned": 802,
      "Ġutvik": 803,
      "Ġby": 804,
      "ĠvÃ¥r": 805,
      "Ġbeste": 806,
      "Ġland": 807,
      "Ã¥l": 808,
      "rift": 809,
      "ĠMen": 810,
      "Ġbed": 811,
      "jÃ¸": 812,
      "Ġenk": 813,
      "riv": 814,
      "ch": 815,
      "ion": 816,
      "este": 817,
      "ĠJeg": 818,
      "ode": 819,
      "ĠÃ¸n": 820,
      "ĠAn": 821,
      "Ġdem": 822,
      "atte": 823,
      "Ġvir": 824,
      "Ġmil": 825,
      "Ġrett": 826,
      "ret": 827,
      "Ġperson": 828,
      "kter": 829,
      "Det": 830,
      "Ġdisse": 831,
      "pl": 832,
      "Ġans": 833,
      "Ġsiden": 834,
      "Ġannet": 835,
      "formasjon": 836,
      "Ġigjen": 837,
      "ente": 838,
      "Ġspil": 839,
      "ate": 840,
      "Ġhelt": 841,
      "...": 842,
      "jekt": 843,
      "sb": 844,
      "isjon": 845,
      "elser": 846,
      "ros": 847,
      "yd": 848,
      "ĠnÃ¦r": 849,
      "Ġdin": 850,
      "ake": 851,
      "tak": 852,
      "els": 853,
      "Ġhele": 854,
      "lem": 855,
      "oll": 856,
      "ken": 857,
      "ĠW": 858,
      "red": 859,
      "Ġkommer": 860,
      "Ġvan": 861,
      "ris": 862,
      ").": 863,
      "Ġforb": 864,
      "Ġhjel": 865,
      "Ġlang": 866,
      "ost": 867,
      "ĠstÃ¸r": 868,
      "Ġgi": 869,
      "ĠkjÃ¸p": 870,
      "Ġve": 871,
      "Ġgodt": 872,
      "olk": 873,
      "ulle": 874,
      "Ġhvordan": 875,
      "rett": 876,
      "ma": 877,
      "Ġsier": 878,
      "ĠgÃ¥r": 879,
      "Ġgir": 880,
      "pen": 881,
      "si": 882,
      "are": 883,
      "ĠvÃ¥": 884,
      "som": 885,
      "Ġ200": 886,
      "ĠSk": 887,
      "Ġ6": 888,
      "kket": 889,
      "eller": 890,
      "Ġstore": 891,
      "ener": 892,
      "Ġbruker": 893,
      "Ã¸s": 894,
      "like": 895,
      "gan": 896,
      "Ġrund": 897,
      "atur": 898,
      "rupp": 899,
      "ĠlÃ¸p": 900,
      "gra": 901,
      "rist": 902,
      "dom": 903,
      "erne": 904,
      "ole": 905,
      "Ġjob": 906,
      "ire": 907,
      "asjoner": 908,
      "Ġakt": 909,
      "Ġnorske": 910,
      "ran": 911,
      "ĠgÃ¥": 912,
      "fer": 913,
      "ug": 914,
      "rav": 915,
      "Ġbygg": 916,
      "edet": 917,
      "ligere": 918,
      "Ġof": 919,
      "olog": 920,
      "Ġbr": 921,
      "Ġpor": 922,
      "Ġly": 923,
      "Ġhen": 924,
      "esi": 925,
      "Ġbarn": 926,
      "over": 927,
      "heter": 928,
      "Ġblant": 929,
      "Ġsamme": 930,
      "ĠAl": 931,
      "Ġper": 932,
      "Ġrundt": 933,
      "Ġvid": 934,
      "fÃ¸l": 935,
      "elige": 936,
      "hol": 937,
      "Ġlegg": 938,
      "va": 939,
      "Ġblitt": 940,
      "ac": 941,
      "ĠOg": 942,
      "set": 943,
      "ikker": 944,
      "ont": 945,
      "Ġlike": 946,
      "Ġsine": 947,
      "pet": 948,
      "Ġinformasjon": 949,
      "heten": 950,
      "ive": 951,
      "mid": 952,
      "pt": 953,
      "ĠHan": 954,
      "rer": 955,
      "valg": 956,
      "ise": 957,
      "aler": 958,
      "mme": 959,
      "ring": 960,
      "satt": 961,
      "Ã¥nd": 962,
      "Ġhje": 963,
      "asser": 964,
      "Ġmest": 965,
      "Ġbes": 966,
      "ali": 967,
      "bru": 968,
      "alen": 969,
      "sel": 970,
      "Ġla": 971,
      "ga": 972,
      "Ġsen": 973,
      "les": 974,
      "Ġsyn": 975,
      "Ġall": 976,
      "Ġsiste": 977,
      "Ġtillegg": 978,
      "nings": 979,
      "Ġtilbake": 980,
      "Ġpre": 981,
      "Ġri": 982,
      "ratis": 983,
      "Ġnorsk": 984,
      "Ġinnen": 985,
      "skje": 986,
      "ĠOslo": 987,
      "sjon": 988,
      "Ġ7": 989,
      "Ġskulle": 990,
      "Ġskj": 991,
      "Ġbegyn": 992,
      "ĠÃ¸k": 993,
      "iver": 994,
      "ĠAr": 995,
      "tere": 996,
      "hus": 997,
      "Ġplan": 998,
      "Ġten": 999,
      "oved": 1000,
      "ytt": 1001,
      "ind": 1002,
      "ĠÃ¸nsker": 1003,
      "urder": 1004,
      "eter": 1005,
      "Ġma": 1006,
      "Ġti": 1007,
      "sy": 1008,
      "Ġ18": 1009,
      "Ġnok": 1010,
      "Ġlig": 1011,
      "Ġmulig": 1012,
      "Ġbruke": 1013,
      "min": 1014,
      "Ġveldig": 1015,
      "op": 1016,
      "Ġw": 1017,
      "Ġfinne": 1018,
      "Ġgikk": 1019,
      "Ġmenne": 1020,
      "fil": 1021,
      "ĠÃĺ": 1022,
      "Ġfly": 1023,
      "dus": 1024,
      "Ġforhold": 1025,
      "styr": 1026,
      "20": 1027,
      "nes": 1028,
      "Ġgl": 1029,
      "handling": 1030,
      "Ġtek": 1031,
      "iet": 1032,
      "Ġtra": 1033,
      "Ġfer": 1034,
      "ksom": 1035,
      "anse": 1036,
      "atter": 1037,
      "sÃ¸k": 1038,
      "ĠvÃ¥re": 1039,
      "Ġ8": 1040,
      "rig": 1041,
      "oks": 1042,
      "Ã¸rer": 1043,
      "usjon": 1044,
      "Ġegen": 1045,
      "Ġdere": 1046,
      "ges": 1047,
      "dt": 1048,
      "duksjon": 1049,
      "Ġstil": 1050,
      "Ġspesi": 1051,
      "Ġjo": 1052,
      "stem": 1053,
      "Ġbedre": 1054,
      "lev": 1055,
      "ĠÃ¥p": 1056,
      "ust": 1057,
      "Ġty": 1058,
      "Ġtar": 1059,
      "gr": 1060,
      "semp": 1061,
      "Ġpolit": 1062,
      "Ġfil": 1063,
      "Ġ10": 1064,
      "Ġhos": 1065,
      "Ġinne": 1066,
      "ĠHer": 1067,
      "far": 1068,
      "fÃ¸re": 1069,
      "kken": 1070,
      "Ġmo": 1071,
      "Ġfl": 1072,
      "ard": 1073,
      "alit": 1074,
      "Ġform": 1075,
      "Ġfar": 1076,
      "Ã¥d": 1077,
      "Ġmor": 1078,
      "Ġev": 1079,
      "aken": 1080,
      "rag": 1081,
      "Ġvalg": 1082,
      "Ġsamt": 1083,
      "Ġdelt": 1084,
      "ĠUn": 1085,
      "aker": 1086,
      "Ġmulighet": 1087,
      "ĠfÃ¥tt": 1088,
      "oen": 1089,
      "jÃ¸r": 1090,
      "asje": 1091,
      "gjÃ¸r": 1092,
      "ay": 1093,
      "Ġsitt": 1094,
      "ganis": 1095,
      "Ġtur": 1096,
      "pro": 1097,
      "Ġlever": 1098,
      "ĠbÃ¸r": 1099,
      "entlig": 1100,
      "istor": 1101,
      "âĢĿ": 1102,
      "Ġulike": 1103,
      "Ġfun": 1104,
      "Ġporno": 1105,
      "kte": 1106,
      "Ġgratis": 1107,
      "elen": 1108,
      "Ġsn": 1109,
      "Ġbest": 1110,
      "ider": 1111,
      "Ġvidere": 1112,
      "Ġtro": 1113,
      "if": 1114,
      "unkt": 1115,
      "ĠUt": 1116,
      "Ġkre": 1117,
      "stre": 1118,
      "iner": 1119,
      "Ġingen": 1120,
      "app": 1121,
      "Ġklo": 1122,
      "asjonen": 1123,
      "onom": 1124,
      "skapet": 1125,
      "Ġfri": 1126,
      "anske": 1127,
      "enner": 1128,
      "Ġbak": 1129,
      "Ġstud": 1130,
      "ĠÃħ": 1131,
      "ĠSp": 1132,
      "Ġ9": 1133,
      "Ġhand": 1134,
      "entet": 1135,
      "inne": 1136,
      "Ġeksemp": 1137,
      "ĠmÃ¥l": 1138,
      "Ġber": 1139,
      "ultur": 1140,
      "ha": 1141,
      "ĠMed": 1142,
      "Ġviser": 1143,
      "Ġkn": 1144,
      "stilling": 1145,
      "Ġgode": 1146,
      "ister": 1147,
      "elder": 1148,
      "med": 1149,
      "ele": 1150,
      "avn": 1151,
      "ĠomrÃ¥": 1152,
      "Ġhol": 1153,
      "Ġjenter": 1154,
      "Ġstyr": 1155,
      "Ġste": 1156,
      "Ġant": 1157,
      "Ġmat": 1158,
      "olen": 1159,
      "Ġfinn": 1160,
      "ib": 1161,
      "ĠspÃ¸r": 1162,
      "Ġpar": 1163,
      "Ġtidligere": 1164,
      "stand": 1165,
      "Ġtjene": 1166,
      "raft": 1167,
      "dan": 1168,
      "ĠDu": 1169,
      "Ġstat": 1170,
      "ĠmÃ¸te": 1171,
      "Ġgam": 1172,
      "Ġru": 1173,
      "Ġfag": 1174,
      "jell": 1175,
      "Ġfull": 1176,
      "Ġkvinner": 1177,
      "Ġy": 1178,
      "fÃ¸rt": 1179,
      "amp": 1180,
      "Ġfram": 1181,
      "anger": 1182,
      "funn": 1183,
      "ivt": 1184,
      "fter": 1185,
      "Ã¸te": 1186,
      "oner": 1187,
      "Ġmenn": 1188,
      "Ġgra": 1189,
      "Ġhoved": 1190,
      "Ġord": 1191,
      "Ġsit": 1192,
      "Ġend": 1193,
      "),": 1194,
      "ĠprÃ¸": 1195,
      "Ġutvikling": 1196,
      "Ġliv": 1197,
      "Ġbid": 1198,
      "ren": 1199,
      "Ġvurder": 1200,
      "Vi": 1201,
      "Ġres": 1202,
      "Ġ0": 1203,
      "Ġled": 1204,
      "Ġting": 1205,
      "Ġmann": 1206,
      "amer": 1207,
      "heng": 1208,
      "rakt": 1209,
      "ĠsÃ¸ker": 1210,
      "Ġbesk": 1211,
      "Ġmens": 1212,
      "Ġsu": 1213,
      "Ġnytt": 1214,
      "Ġdes": 1215,
      "ĠstÃ¸": 1216,
      "Ġmid": 1217,
      "ĠPÃ¥": 1218,
      "Ġskri": 1219,
      "ps": 1220,
      "Ġfolk": 1221,
      "Ġoff": 1222,
      "rit": 1223,
      "Ġtatt": 1224,
      "000": 1225,
      "vir": 1226,
      "Ã¦ring": 1227,
      "Ġfle": 1228,
      "ĠSe": 1229,
      "syn": 1230,
      "led": 1231,
      "stÃ¥": 1232,
      "Ġbeh": 1233,
      "Ġsa": 1234,
      "po": 1235,
      "Ġbo": 1236,
      "Ġsj": 1237,
      "Ġeks": 1238,
      "Ġad": 1239,
      "Ġderfor": 1240,
      "asse": 1241,
      "Ġkomme": 1242,
      "utter": 1243,
      "sert": 1244,
      "Ġprosjekt": 1245,
      "For": 1246,
      "alitet": 1247,
      "amil": 1248,
      "sf": 1249,
      "arte": 1250,
      "Ġfordi": 1251,
      "Ġlok": 1252,
      "Ġville": 1253,
      "Ġbilder": 1254,
      "Ġkjent": 1255,
      "Ġsett": 1256,
      "gÃ¥": 1257,
      "ĠsvÃ¦rt": 1258,
      "Ġnatur": 1259,
      "vel": 1260,
      "Ġfinnes": 1261,
      "ian": 1262,
      "tert": 1263,
      "Ġvann": 1264,
      "kur": 1265,
      "ivitet": 1266,
      "eil": 1267,
      "Ġaller": 1268,
      "ys": 1269,
      "Ġhvis": 1270,
      "Ġ15": 1271,
      "dust": 1272,
      "Ã¦rer": 1273,
      "Ġbarne": 1274,
      "Ġon": 1275,
      "Ġfyl": 1276,
      "Ġforskjel": 1277,
      "sj": 1278,
      "Ġkanskje": 1279,
      "ĠDa": 1280,
      "ite": 1281,
      "Ġeksempel": 1282,
      "kes": 1283,
      "unnskap": 1284,
      "ytte": 1285,
      "ĠTil": 1286,
      "Ġskap": 1287,
      "Ġfakt": 1288,
      "orte": 1289,
      "vil": 1290,
      "ĠlÃ¸pet": 1291,
      "stra": 1292,
      "Ġkontakt": 1293,
      "verk": 1294,
      "Ġintern": 1295,
      "Ġofte": 1296,
      "mann": 1297,
      "Ã¸ker": 1298,
      "Ġsamarbeid": 1299,
      "rep": 1300,
      "Ġgjelder": 1301,
      "under": 1302,
      "ĠDer": 1303,
      "Ġbra": 1304,
      "Ġjobb": 1305,
      "org": 1306,
      "Ġunn": 1307,
      "Ġlov": 1308,
      "mt": 1309,
      "Ġfant": 1310,
      "stad": 1311,
      "Ġsik": 1312,
      "ign": 1313,
      "ial": 1314,
      "sted": 1315,
      "Ġannen": 1316,
      "ĠInn": 1317,
      "rik": 1318,
      "Ġverden": 1319,
      "Ġhvil": 1320,
      "allet": 1321,
      "Ġvide": 1322,
      "ĠBer": 1323,
      "lik": 1324,
      "Ġgjen": 1325,
      "Ġmindre": 1326,
      "Ġsent": 1327,
      "Ġoppd": 1328,
      "Ġhelse": 1329,
      "roll": 1330,
      "bygg": 1331,
      "Ġlu": 1332,
      "ong": 1333,
      "ĠRe": 1334,
      "ER": 1335,
      "assen": 1336,
      "Ġung": 1337,
      "Ġprob": 1338,
      "Ġstart": 1339,
      "Ġhvert": 1340,
      "logg": 1341,
      "Ġtilf": 1342,
      "rom": 1343,
      "ank": 1344,
      "Ġbrukes": 1345,
      "Ġmennesker": 1346,
      "ĠSam": 1347,
      "tidig": 1348,
      "Ġben": 1349,
      "sdag": 1350,
      "ĠÃ¸y": 1351,
      "ade": 1352,
      "Ġinst": 1353,
      "Ġendr": 1354,
      "ille": 1355,
      "dri": 1356,
      "Ġforel": 1357,
      "fordr": 1358,
      "Ġvis": 1359,
      "Ġhjelp": 1360,
      "ffekt": 1361,
      "skelig": 1362,
      "Ġ:": 1363,
      "Ġenkelt": 1364,
      "Ġvirk": 1365,
      "ĠsÃ¸k": 1366,
      "Ġro": 1367,
      "jen": 1368,
      "slag": 1369,
      "Ġverd": 1370,
      "ĠsmÃ¥": 1371,
      "ĠstÃ¸rre": 1372,
      "ommer": 1373,
      "nad": 1374,
      "Ġhistor": 1375,
      "Ġtrenger": 1376,
      "pper": 1377,
      "ikken": 1378,
      "ĠfÃ¸rst": 1379,
      "Ġkommune": 1380,
      "tet": 1381,
      "sv": 1382,
      "smÃ¥l": 1383,
      "Ġprosent": 1384,
      "tern": 1385,
      "esten": 1386,
      "Ġtok": 1387,
      "ivÃ¥": 1388,
      "ĠmÃ¥te": 1389,
      "ĠNord": 1390,
      "ĠPro": 1391,
      "Ġmus": 1392,
      "lys": 1393,
      "Ġderes": 1394,
      "Ġresult": 1395,
      "Ġtren": 1396,
      "Ġmar": 1397,
      "ĠmÃ¥tte": 1398,
      "dd": 1399,
      "ĠCh": 1400,
      "Ġgjort": 1401,
      "ighet": 1402,
      "uder": 1403,
      "ikt": 1404,
      "uro": 1405,
      "201": 1406,
      "reg": 1407,
      "Ġmark": 1408,
      "Ġgener": 1409,
      "tes": 1410,
      "Ġ12": 1411,
      "Ġansvar": 1412,
      "Ġfinner": 1413,
      "sh": 1414,
      "gende": 1415,
      "vor": 1416,
      "Ġligger": 1417,
      "Ġ2017": 1418,
      "ĠJo": 1419,
      "Ġplass": 1420,
      "dustri": 1421,
      "rev": 1422,
      "sn": 1423,
      "ĠEtter": 1424,
      "vendig": 1425,
      "off": 1426,
      "ĠMar": 1427,
      "ĠstÃ¥r": 1428,
      "Ġhans": 1429,
      "Ġalltid": 1430,
      "ommun": 1431,
      "Ġpart": 1432,
      "Ġmass": 1433,
      "Ġfot": 1434,
      "Ġkron": 1435,
      "spl": 1436,
      "dene": 1437,
      "Ġpris": 1438,
      "Ġute": 1439,
      "Ġskjer": 1440,
      "sket": 1441,
      "Ġmilli": 1442,
      "Ġrel": 1443,
      "Ġbehov": 1444,
      "Ġbok": 1445,
      "Ġtekn": 1446,
      "rasjon": 1447,
      "Ã¸st": 1448,
      "Ġster": 1449,
      "til": 1450,
      "Ġmener": 1451,
      "bil": 1452,
      "svar": 1453,
      "mmet": 1454,
      "ĠNÃ¥r": 1455,
      "Ġvin": 1456,
      "ĠhÃ¥nd": 1457,
      "ĠnÃ¸d": 1458,
      "Ġte": 1459,
      "Den": 1460,
      "Ġfamil": 1461,
      "Ġvet": 1462,
      "Ġvoks": 1463,
      "bo": 1464,
      "Ġskole": 1465,
      "ĠlÃ¸s": 1466,
      "Ġsyk": 1467,
      "ĠdÃ¸": 1468,
      "yttet": 1469,
      "ĠâĢ": 1470,
      "ore": 1471,
      "grunn": 1472,
      "sikt": 1473,
      "Ġsamfunn": 1474,
      "enge": 1475,
      "Ġsos": 1476,
      "io": 1477,
      "Ġprodu": 1478,
      "ĠOpp": 1479,
      "des": 1480,
      "Ġ17": 1481,
      "aks": 1482,
      "tek": 1483,
      "ĠVed": 1484,
      "Jeg": 1485,
      "ubb": 1486,
      "ip": 1487,
      "Ġsvar": 1488,
      "ropp": 1489,
      "ĠÃ¸konom": 1490,
      "age": 1491,
      "bar": 1492,
      "Ġsatt": 1493,
      "ester": 1494,
      "Ġenkel": 1495,
      "ensjon": 1496,
      "ĠSÃ¥": 1497,
      "Ġlangt": 1498,
      "get": 1499,
      "Ġsna": 1500,
      "Ġsette": 1501,
      "Ġgrupp": 1502,
      "ksjoner": 1503,
      "Ġkultur": 1504,
      "Ġtiden": 1505,
      "olle": 1506,
      "Ġtem": 1507,
      "mber": 1508,
      "Ġklar": 1509,
      "try": 1510,
      "midler": 1511,
      "mat": 1512,
      "rosjekt": 1513,
      "Ġvanskelig": 1514,
      "ĠHun": 1515,
      "uler": 1516,
      "Ġarbeids": 1517,
      "Ġfortsatt": 1518,
      "Ġfast": 1519,
      "Ġopplev": 1520,
      "dal": 1521,
      "tatt": 1522,
      "danning": 1523,
      "fon": 1524,
      "Ġaldri": 1525,
      "yre": 1526,
      "Ġnord": 1527,
      "sett": 1528,
      "ĠlÃ¥": 1529,
      "ĠmÃ¥n": 1530,
      "Ġpr": 1531,
      "ice": 1532,
      "Ġvideo": 1533,
      "by": 1534,
      "ikkerhet": 1535,
      "Ġganger": 1536,
      "Ġforskjellige": 1537,
      "Ġorganis": 1538,
      "Ġkort": 1539,
      "ĠfÃ¸lge": 1540,
      "Ġdine": 1541,
      "spunkt": 1542,
      "grupp": 1543,
      "Ġkli": 1544,
      "Ġlaget": 1545,
      "veg": 1546,
      "tale": 1547,
      "Ġrom": 1548,
      "Ġdri": 1549,
      "ina": 1550,
      "Ġkunnskap": 1551,
      "la": 1552,
      "syk": 1553,
      "ĠNorges": 1554,
      "Ġstort": 1555,
      "Ġinnlegg": 1556,
      "Ġsted": 1557,
      "Ãĺ": 1558,
      "revet": 1559,
      "elv": 1560,
      "Ġrep": 1561,
      "Ġch": 1562,
      "gjeng": 1563,
      "elles": 1564,
      "Ġstra": 1565,
      "ĠEl": 1566,
      "vert": 1567,
      "Ġrekke": 1568,
      "ress": 1569,
      "Ġforv": 1570,
      "Ġeffekt": 1571,
      "Ġeng": 1572,
      "udd": 1573,
      "En": 1574,
      "ĠsÃ¸r": 1575,
      "Ġlegge": 1576,
      "Ġ11": 1577,
      "Ġ16": 1578,
      "fÃ¸ring": 1579,
      "atet": 1580,
      "Ã¦rlighet": 1581,
      "bef": 1582,
      "Ġang": 1583,
      "ĠHar": 1584,
      "akk": 1585,
      "Ġham": 1586,
      "Ġkrav": 1587,
      "Ġ.": 1588,
      "ĠhÃ¥": 1589,
      "mark": 1590,
      "Ġsje": 1591,
      "Ġkal": 1592,
      "Ġneste": 1593,
      "ĠfÃ¸": 1594,
      "vere": 1595,
      "bruk": 1596,
      "Ġfleste": 1597,
      "Ġtopp": 1598,
      "ĠsÃ¦r": 1599,
      "oden": 1600,
      "ball": 1601,
      "Ġhus": 1602,
      "Ġhatt": 1603,
      "ck": 1604,
      "au": 1605,
      "Ġlett": 1606,
      "terer": 1607,
      "Ġbrukt": 1608,
      "Ġ14": 1609,
      "ei": 1610,
      "Ġditt": 1611,
      "Ġsyke": 1612,
      "SA": 1613,
      "Ġliten": 1614,
      "Ġdager": 1615,
      "raf": 1616,
      "Ġerfar": 1617,
      "Ġvanlig": 1618,
      "iale": 1619,
      "ĠEt": 1620,
      "okus": 1621,
      "Ġgjerne": 1622,
      "Ġpres": 1623,
      "IN": 1624,
      "omrÃ¥": 1625,
      "Ġhal": 1626,
      "Ġvirkelig": 1627,
      "ĠmiljÃ¸": 1628,
      "Ġlite": 1629,
      "ow": 1630,
      "ĠDenne": 1631,
      "lemmer": 1632,
      "ral": 1633,
      "drett": 1634,
      "Ġart": 1635,
      "entene": 1636,
      "sfor": 1637,
      "Ġferdig": 1638,
      "holder": 1639,
      "Ġmang": 1640,
      "ksomhet": 1641,
      "Ġrask": 1642,
      "rukt": 1643,
      "agt": 1644,
      "jem": 1645,
      "Ġca": 1646,
      "Ġ2016": 1647,
      "nt": 1648,
      "berg": 1649,
      "ativ": 1650,
      "Ġheller": 1651,
      "Ġbehandling": 1652,
      "ĠvÃ¥rt": 1653,
      "ĠAv": 1654,
      "line": 1655,
      "meld": 1656,
      "kjent": 1657,
      "unnet": 1658,
      "ingene": 1659,
      "fÃ¸rer": 1660,
      "Ġregist": 1661,
      "ĠkjÃ¦re": 1662,
      "Ġkvalitet": 1663,
      "Ġkroner": 1664,
      "Ġ13": 1665,
      "ĠY": 1666,
      "lingen": 1667,
      "ĠkjÃ¸pe": 1668,
      "ĠspÃ¸rsmÃ¥l": 1669,
      "ĠnÃ¸dvendig": 1670,
      "sport": 1671,
      "Ġleder": 1672,
      "Ġside": 1673,
      "Ġspesielt": 1674,
      "ĠEr": 1675,
      "end": 1676,
      "Ã¸dt": 1677,
      "Ġpos": 1678,
      "orde": 1679,
      "ĠNÃ¥": 1680,
      "Ġ30": 1681,
      "fÃ¸lg": 1682,
      "ĠBar": 1683,
      "Ġju": 1684,
      "Ġinteres": 1685,
      "Ġstand": 1686,
      "ering": 1687,
      "ftet": 1688,
      "Ġspill": 1689,
      "Ġett": 1690,
      "ommen": 1691,
      "kluder": 1692,
      "Ġblogg": 1693,
      "Ġprogra": 1694,
      "Ġgamle": 1695,
      "ĠDat": 1696,
      "lÃ¥": 1697,
      "Ġ2015": 1698,
      "yndig": 1699,
      "Ġkar": 1700,
      "Ġkonkur": 1701,
      "Ġ/": 1702,
      "Ġallerede": 1703,
      "Ġbas": 1704,
      "Ġret": 1705,
      "Ġtror": 1706,
      "tering": 1707,
      "Ġvenn": 1708,
      "ivers": 1709,
      "ĠrÃ¥d": 1710,
      "erer": 1711,
      "Ġriktig": 1712,
      "Ġnasjon": 1713,
      "Ġfeil": 1714,
      "Ãħ": 1715,
      "Ġgrad": 1716,
      "pr": 1717,
      "Ġgitt": 1718,
      "ĠkjÃ¸r": 1719,
      "St": 1720,
      "Ġslutt": 1721,
      "bud": 1722,
      "Ġveg": 1723,
      "ĠstÃ¸rste": 1724,
      "ĠbesÃ¸k": 1725,
      "Ġsenere": 1726,
      "Ġhold": 1727,
      "fall": 1728,
      "Ġhe": 1729,
      "ike": 1730,
      "Ġkomp": 1731,
      "utvik": 1732,
      "Ġforn": 1733,
      "obil": 1734,
      "Ġhjelpe": 1735,
      "Ġdra": 1736,
      "Ġbetyr": 1737,
      "Ã¥let": 1738,
      "up": 1739,
      "ĠkjÃ¸": 1740,
      "ĠÃ¥rs": 1741,
      "ct": 1742,
      "Â».": 1743,
      "lagt": 1744,
      "Ġhjem": 1745,
      "Ġinternasjon": 1746,
      "rige": 1747,
      "anen": 1748,
      "ningene": 1749,
      "Ġholde": 1750,
      "ennes": 1751,
      "Ġarr": 1752,
      "Ġtilgjeng": 1753,
      "EN": 1754,
      "urs": 1755,
      "teg": 1756,
      "ummer": 1757,
      "ktor": 1758,
      "Ġkropp": 1759,
      "Ġutfordr": 1760,
      "Ġlenge": 1761,
      "kv": 1762,
      "ĠHvis": 1763,
      "Ġmassasje": 1764,
      "Ġdamer": 1765,
      "tre": 1766,
      "fri": 1767,
      "Ġetab": 1768,
      "Ġbetyd": 1769,
      "ĠKrist": 1770,
      "ĠÃ¥rene": 1771,
      "linger": 1772,
      "Ġnettst": 1773,
      "kom": 1774,
      "ats": 1775,
      "likt": 1776,
      "ori": 1777,
      "Ġbort": 1778,
      "gt": 1779,
      "ook": 1780,
      "Ã©": 1781,
      "lÃ¸p": 1782,
      "ĠstÃ¸tte": 1783,
      "Ġlagt": 1784,
      "Ġdy": 1785,
      "sam": 1786,
      "lene": 1787,
      "ÂŃ": 1788,
      "Ġhot": 1789,
      "Ġarbeidet": 1790,
      "Ġfjer": 1791,
      "ansen": 1792,
      "Ġminst": 1793,
      "Ġavsl": 1794,
      "Ġoslo": 1795,
      "Ġkor": 1796,
      "Ġkunst": 1797,
      "Ġdeler": 1798,
      "ttet": 1799,
      "Ġlivet": 1800,
      "Ġfire": 1801,
      "agen": 1802,
      "ons": 1803,
      "Ġmott": 1804,
      "petanse": 1805,
      "jekter": 1806,
      "fÃ¸lge": 1807,
      "Ġfem": 1808,
      "Ġ199": 1809,
      "ĠundersÃ¸k": 1810,
      "ĠkjÃ¦rlighet": 1811,
      "Ġbek": 1812,
      "Ġdire": 1813,
      "10": 1814,
      "uelle": 1815,
      "ennende": 1816,
      "Ġsommer": 1817,
      "Ġ|": 1818,
      "Ġtry": 1819,
      "Ġsol": 1820,
      "Ġ%": 1821,
      "Ġga": 1822,
      "Ġansatte": 1823,
      "rum": 1824,
      "ĠAS": 1825,
      "vice": 1826,
      "Ġredus": 1827,
      "ĠNorsk": 1828,
      "Ġfokus": 1829,
      "Ġnesten": 1830,
      "Ġforts": 1831,
      "Ġfj": 1832,
      "esp": 1833,
      "sÃ¸": 1834,
      "Ġnorge": 1835,
      "menter": 1836,
      "Ġbidra": 1837,
      "alte": 1838,
      "ologi": 1839,
      "Ġter": 1840,
      "part": 1841,
      "iller": 1842,
      "andre": 1843,
      "Ġkr": 1844,
      "disjon": 1845,
      "Ġaktivitet": 1846,
      "Ġbolig": 1847,
      "Ġproblem": 1848,
      "ĠÃ¸v": 1849,
      "anser": 1850,
      "ĠOm": 1851,
      "sept": 1852,
      "Ġomf": 1853,
      "Ġegne": 1854,
      "ĠÃ¸kt": 1855,
      "iali": 1856,
      "of": 1857,
      "âĢ¦": 1858,
      "ce": 1859,
      "orer": 1860,
      "ĠforstÃ¥": 1861,
      "Ġbyg": 1862,
      "heim": 1863,
      "Ġint": 1864,
      "ĠlÃ¸": 1865,
      "Ġinv": 1866,
      "ĠdÃ¥r": 1867,
      "Ġener": 1868,
      "OR": 1869,
      "Ġpub": 1870,
      "ĠOr": 1871,
      "iljÃ¸": 1872,
      "ue": 1873,
      "lert": 1874,
      "elefon": 1875,
      "fin": 1876,
      "liv": 1877,
      "Ġdok": 1878,
      "pa": 1879,
      "Ġekstra": 1880,
      "Ġtiltak": 1881,
      "Ġlese": 1882,
      "Ġgre": 1883,
      "irk": 1884,
      "Ġdi": 1885,
      "Ġenda": 1886,
      "Ġekte": 1887,
      "Ġoppf": 1888,
      "Ġtilbud": 1889,
      "Ġpas": 1890,
      "Ġganske": 1891,
      "Ġko": 1892,
      "Ġdagen": 1893,
      "minist": 1894,
      "yt": 1895,
      "Ġlage": 1896,
      "Ġnev": 1897,
      "Ġoppr": 1898,
      "Ġpersoner": 1899,
      "Ġsc": 1900,
      "Ġhenne": 1901,
      "vÃ¦r": 1902,
      "Ġutvalg": 1903,
      "Ġkost": 1904,
      "Ġkraft": 1905,
      "ĠJoh": 1906,
      "Ġdersom": 1907,
      "ĠArbeid": 1908,
      "Ġanbef": 1909,
      "Ġris": 1910,
      "enes": 1911,
      "Ġapp": 1912,
      "aff": 1913,
      "Ġ2014": 1914,
      "ond": 1915,
      "Ġrapp": 1916,
      "Ġsitu": 1917,
      "Ġ25": 1918,
      "Ġfelles": 1919,
      "uts": 1920,
      "ĠLe": 1921,
      "fl": 1922,
      "Ġgjorde": 1923,
      "iene": 1924,
      "ink": 1925,
      "Ġmod": 1926,
      "Ġpriv": 1927,
      "laget": 1928,
      "Ġfaktisk": 1929,
      "stit": 1930,
      "Ġmet": 1931,
      "ĠhÃ¸yere": 1932,
      "ĠKj": 1933,
      "30": 1934,
      "Ġsep": 1935,
      "nn": 1936,
      "Ġdrift": 1937,
      "ĠÃ¥ret": 1938,
      "Ġmillioner": 1939,
      "Ġunge": 1940,
      "midlertid": 1941,
      "ane": 1942,
      "Ġred": 1943,
      "rÃ¥k": 1944,
      "Ġutenfor": 1945,
      "mel": 1946,
      "Ġinnhold": 1947,
      "Ġprodus": 1948,
      "bl": 1949,
      "ĠHva": 1950,
      "lever": 1951,
      "Ġproduksjon": 1952,
      "fra": 1953,
      "Ġstad": 1954,
      "Ġsikre": 1955,
      "ager": 1956,
      "ĠSom": 1957,
      "rÃ¸m": 1958,
      "Ġstedet": 1959,
      "bet": 1960,
      "Ġoppdater": 1961,
      "Ġinkluder": 1962,
      "jenester": 1963,
      "Ġsamtidig": 1964,
      "Ġ,": 1965,
      "ĠSÃ¸r": 1966,
      "Ġbel": 1967,
      "ĠlÃ¦re": 1968,
      "tr": 1969,
      "ĠMan": 1970,
      "Ġthe": 1971,
      "Ġspiller": 1972,
      "Ġskje": 1973,
      "urt": 1974,
      "Ġkap": 1975,
      "Ã¥ret": 1976,
      "ĠÂ·": 1977,
      "trykk": 1978,
      "Ġerot": 1979,
      "Ġvekt": 1980,
      "skaper": 1981,
      "aten": 1982,
      "utikk": 1983,
      "Ġungdom": 1984,
      "urat": 1985,
      "Ġleng": 1986,
      "gaver": 1987,
      "Ġklokker": 1988,
      "Ġoppl": 1989,
      "Ġonline": 1990,
      "Ġalder": 1991,
      "Ġverdens": 1992,
      "skudd": 1993,
      "ame": 1994,
      "Ġtimer": 1995,
      "Ġfunksjon": 1996,
      "Ġanal": 1997,
      "Ġvise": 1998,
      "Ġenkelte": 1999,
      "Ġlegger": 2000,
      "Ġ100": 2001,
      "kning": 2002,
      "Ġbef": 2003,
      "Ġdyr": 2004,
      "ĠGr": 2005,
      "erte": 2006,
      "Ġsystem": 2007,
      "vid": 2008,
      "Ġlandet": 2009,
      "Ġevent": 2010,
      "Ġsing": 2011,
      "Ġvei": 2012,
      "uten": 2013,
      "ĠsÃ¸ke": 2014,
      "Ġses": 2015,
      "De": 2016,
      "Ġseks": 2017,
      "Ġpop": 2018,
      "Ġslike": 2019,
      "Ġele": 2020,
      "Ġlikevel": 2021,
      "Ġbarneh": 2022,
      "Ġdisk": 2023,
      "Ġspennende": 2024,
      "kon": 2025,
      "Ġjun": 2026,
      "Ġhav": 2027,
      "obb": 2028,
      "deling": 2029,
      "ĠBru": 2030,
      "Ġpoeng": 2031,
      "Ġsann": 2032,
      "ĠTh": 2033,
      "enser": 2034,
      "Ġtilgjengelig": 2035,
      "Ġperi": 2036,
      "ĠnÃ¦rm": 2037,
      "Ã¥ende": 2038,
      "Ġkontroll": 2039,
      "ĠBe": 2040,
      "Ġegentlig": 2041,
      "ikasjon": 2042,
      "ies": 2043,
      "spill": 2044,
      "atene": 2045,
      "Ġfol": 2046,
      "entlige": 2047,
      "aller": 2048,
      "Ġimidlertid": 2049,
      "Ġ50": 2050,
      "hengig": 2051,
      "Ã¥tt": 2052,
      "Ġdermed": 2053,
      "kkurat": 2054,
      "ĠAlle": 2055,
      "Ġpenger": 2056,
      "Ġutstyr": 2057,
      "Ġsikkerhet": 2058,
      "ou": 2059,
      "Ġhalv": 2060,
      "ĠPl": 2061,
      "skrift": 2062,
      "Ġjord": 2063,
      "Ġrisik": 2064,
      "dat": 2065,
      "mb": 2066,
      "Ġeldre": 2067,
      "Ġmobil": 2068,
      "ĠaltsÃ¥": 2069,
      "adet": 2070,
      "Ġforteller": 2071,
      "Ġnetts": 2072,
      "gÃ¥r": 2073,
      "Ġsynes": 2074,
      "Ġbud": 2075,
      "rid": 2076,
      "Ġ2013": 2077,
      "ime": 2078,
      "ĠÃ¥pen": 2079,
      "Ġnavn": 2080,
      "elses": 2081,
      "indelse": 2082,
      "19": 2083,
      "Ġpri": 2084,
      "Ġhverandre": 2085,
      "Ġutro": 2086,
      "Ġjan": 2087,
      "Ġeget": 2088,
      "holde": 2089,
      "ĠBl": 2090,
      "ves": 2091,
      "Ġkamp": 2092,
      "Ġjente": 2093,
      "ĠsÃ¦rlig": 2094,
      "Nor": 2095,
      "Ġmai": 2096,
      "Ġtan": 2097,
      "kont": 2098,
      "Ġind": 2099,
      "ansk": 2100,
      "sjett": 2101,
      "ersom": 2102,
      "one": 2103,
      "ator": 2104,
      "Ġol": 2105,
      "Ġstartet": 2106,
      "Ġbygge": 2107,
      "Ġpsyk": 2108,
      "Ġmusikk": 2109,
      "Ġtap": 2110,
      "tallet": 2111,
      "Ġforet": 2112,
      "11": 2113,
      "Ġspille": 2114,
      "ĠSer": 2115,
      "rifter": 2116,
      "ĠmÃ¸ter": 2117,
      "isin": 2118,
      "elsene": 2119,
      "oler": 2120,
      "Ġbegge": 2121,
      "Ġinnenfor": 2122,
      "Ġtidlig": 2123,
      "ation": 2124,
      "Ġutgang": 2125,
      "Ġkvinne": 2126,
      "ytter": 2127,
      "kkes": 2128,
      "rem": 2129,
      "ĠfÃ¸dt": 2130,
      "ĠNoen": 2131,
      "Ġfunnet": 2132,
      "Ġbarna": 2133,
      "Ġforbindelse": 2134,
      "usen": 2135,
      "urer": 2136,
      "Ġhund": 2137,
      "ĠgÃ¥tt": 2138,
      "Ġsak": 2139,
      "Ġso": 2140,
      "Ġbilde": 2141,
      "Ġhens": 2142,
      "jemp": 2143,
      "ym": 2144,
      "Ġmine": 2145,
      "ask": 2146,
      "ĠIkke": 2147,
      "Ġklart": 2148,
      "likk": 2149,
      "Ġpass": 2150,
      "Ã¸rt": 2151,
      "int": 2152,
      "ild": 2153,
      "Ġinns": 2154,
      "Ġsalg": 2155,
      "Ġteg": 2156,
      "rar": 2157,
      "utvalg": 2158,
      "Ġkveld": 2159,
      "orten": 2160,
      "kn": 2161,
      "Ġmedlem": 2162,
      "Â»,": 2163,
      "Ġtak": 2164,
      "Ġhjer": 2165,
      "post": 2166,
      "gave": 2167,
      "ĠprÃ¸ve": 2168,
      "ĠomrÃ¥det": 2169,
      "fag": 2170,
      "Ġregj": 2171,
      "sak": 2172,
      "Ġmedlemmer": 2173,
      "anlegg": 2174,
      "Ġkam": 2175,
      "ensen": 2176,
      "Ġak": 2177,
      "ht": 2178,
      "Ġtjenester": 2179,
      "Ġforskning": 2180,
      "ĠReg": 2181,
      "ppe": 2182,
      "ĠUnder": 2183,
      "Ġeneste": 2184,
      "uss": 2185,
      "ferd": 2186,
      "Ġfilm": 2187,
      "ĠKan": 2188,
      "mmen": 2189,
      "Ġskrive": 2190,
      "stÃ¥r": 2191,
      "ĠgjÃ¸res": 2192,
      "agra": 2193,
      "Ġhu": 2194,
      "Ġvenner": 2195,
      "giv": 2196,
      "her": 2197,
      "resent": 2198,
      "lysninger": 2199,
      "Ġfantast": 2200,
      "kkel": 2201,
      "Ġprodukt": 2202,
      "onser": 2203,
      "lemer": 2204,
      "Ġjobber": 2205,
      "Ġuke": 2206,
      "itte": 2207,
      "Ġpopul": 2208,
      "Ġsaken": 2209,
      "Ġinsp": 2210,
      "Ġob": 2211,
      "Ġtradisjon": 2212,
      "Ġutvikle": 2213,
      "Ġskriver": 2214,
      "Ġkvinn": 2215,
      "Ġkil": 2216,
      "arer": 2217,
      "Ġid": 2218,
      "jord": 2219,
      "Ġknyttet": 2220,
      "ĠfÃ¸lger": 2221,
      "Ġprof": 2222,
      "lott": 2223,
      "Ġskape": 2224,
      "Ġbegynte": 2225,
      "Ġindustri": 2226,
      "ommet": 2227,
      "Ġoper": 2228,
      "Ġbur": 2229,
      "ĠEuro": 2230,
      "Ġaut": 2231,
      "ĠkjÃ¸re": 2232,
      "arbeidet": 2233,
      "ĠKl": 2234,
      "fÃ¸res": 2235,
      "Ġvelge": 2236,
      "Ġmarked": 2237,
      "Ġus": 2238,
      "gav": 2239,
      "12": 2240,
      "Ġhennes": 2241,
      "ĠOl": 2242,
      "Ġx": 2243,
      "Ġdata": 2244,
      "Ġfisk": 2245,
      "Ġsende": 2246,
      "vern": 2247,
      "iste": 2248,
      "Ġtru": 2249,
      "senter": 2250,
      "isering": 2251,
      "Ġbor": 2252,
      "fe": 2253,
      "Ġbry": 2254,
      "ĠnivÃ¥": 2255,
      "Ġprosjektet": 2256,
      "ment": 2257,
      "Ġelekt": 2258,
      "menn": 2259,
      "ĠMÃ¸te": 2260,
      "Etter": 2261,
      "Ġkons": 2262,
      "pass": 2263,
      "Ġveien": 2264,
      "akter": 2265,
      "eldig": 2266,
      "ument": 2267,
      "Ġ2012": 2268,
      "Ġkart": 2269,
      "jef": 2270,
      "ĠkjÃ¸nn": 2271,
      "Ġimp": 2272,
      "Ġminutter": 2273,
      "ĠFra": 2274,
      "ative": 2275,
      "ĠlÃ¦r": 2276,
      "plass": 2277,
      "Ġmater": 2278,
      "PÃ¥": 2279,
      "ĠUSA": 2280,
      "ansett": 2281,
      "essen": 2282,
      "merik": 2283,
      "Ġforh": 2284,
      "uar": 2285,
      "Ġokt": 2286,
      "beide": 2287,
      "Ġkompetanse": 2288,
      "stene": 2289,
      "giver": 2290,
      "Ġmeld": 2291,
      "br": 2292,
      "ET": 2293,
      "Ġdatings": 2294,
      "isert": 2295,
      "Ġrette": 2296,
      "Ġbehand": 2297,
      "raks": 2298,
      "Ġuts": 2299,
      "Ġutdanning": 2300,
      "Ġis": 2301,
      "Ġposit": 2302,
      "fte": 2303,
      "Ġtot": 2304,
      "Ġkommet": 2305,
      "ah": 2306,
      "Ġlo": 2307,
      "avnet": 2308,
      "abil": 2309,
      "Ġvia": 2310,
      "esjon": 2311,
      "Ġbegynner": 2312,
      "atisk": 2313,
      "Ã¸v": 2314,
      "uelt": 2315,
      "Ġab": 2316,
      "ader": 2317,
      "Ġtill": 2318,
      "bin": 2319,
      "ĠmÃ¥ned": 2320,
      "Ġfjor": 2321,
      "Ġklubb": 2322,
      "Ġantall": 2323,
      "yng": 2324,
      "oto": 2325,
      "ĠGud": 2326,
      "leder": 2327,
      "ĠhÃ¸yt": 2328,
      "Ġbyen": 2329,
      "Ġlenger": 2330,
      "Ġhvilke": 2331,
      "ĠlÃ¸nn": 2332,
      "Ġgar": 2333,
      "sta": 2334,
      "Ġholder": 2335,
      "ĠpÃ¥vir": 2336,
      "iendom": 2337,
      "Ġkrig": 2338,
      "Ġopprett": 2339,
      "lÃ¸s": 2340,
      "ack": 2341,
      "15": 2342,
      "Ġsh": 2343,
      "nen": 2344,
      "anter": 2345,
      "unst": 2346,
      "ars": 2347,
      "Ġbegr": 2348,
      "Ġskjed": 2349,
      "ĠGj": 2350,
      "Ġforkl": 2351,
      "ktÃ¸y": 2352,
      "fold": 2353,
      "Ġskolen": 2354,
      "ĠavgjÃ¸r": 2355,
      "Ġakkurat": 2356,
      "bok": 2357,
      "Ġmitt": 2358,
      "enten": 2359,
      "Ġliker": 2360,
      "Men": 2361,
      "ino": 2362,
      "Dette": 2363,
      "Ġidrett": 2364,
      "Ġ2018": 2365,
      "Ġlav": 2366,
      "Ġbeveg": 2367,
      "Ġplasser": 2368,
      "Ġviktigste": 2369,
      "itter": 2370,
      "Ġtenke": 2371,
      "gift": 2372,
      "huset": 2373,
      "Ġtv": 2374,
      "Ġvoksne": 2375,
      "Ġhjemm": 2376,
      "Ġanlegg": 2377,
      "AN": 2378,
      "Ġslag": 2379,
      "Ġapr": 2380,
      "Ġluft": 2381,
      "ĠTron": 2382,
      "igit": 2383,
      "ĠBergen": 2384,
      "pÃ¥": 2385,
      "Ġalvor": 2386,
      "raksis": 2387,
      "Ġtilbyr": 2388,
      "Ġ&": 2389,
      "ĠKv": 2390,
      "Ġdirekte": 2391,
      "Ġstadig": 2392,
      "skole": 2393,
      "ĠdÃ¸d": 2394,
      "ĠSelv": 2395,
      "ĠMo": 2396,
      "eren": 2397,
      "Ġtred": 2398,
      "ĠLes": 2399,
      "ĠnÃ¦rings": 2400,
      "utvikling": 2401,
      "man": 2402,
      "Ġregion": 2403,
      "Ġdre": 2404,
      "ograf": 2405,
      "ĠHa": 2406,
      "Ġbenytte": 2407,
      "olit": 2408,
      "Ġlin": 2409,
      "ST": 2410,
      "ĠBil": 2411,
      "Ġtest": 2412,
      "nere": 2413,
      "Ġuker": 2414,
      "!!": 2415,
      "iversitet": 2416,
      "ĠSy": 2417,
      "Ġkri": 2418,
      "Ġhjemme": 2419,
      "ĠdÃ¥rlig": 2420,
      "Ġbakgrunn": 2421,
      "snitt": 2422,
      "Ġ22": 2423,
      "omme": 2424,
      "Ġ24": 2425,
      "lipp": 2426,
      "Ġfordel": 2427,
      "ĠDisse": 2428,
      "isere": 2429,
      "ĠFÃ¸r": 2430,
      "Ġmyndig": 2431,
      "ĠÃ©": 2432,
      "ĠStat": 2433,
      "varer": 2434,
      "Ġfall": 2435,
      "Ġtema": 2436,
      "Ġkir": 2437,
      "Ġ2011": 2438,
      "Ġhandler": 2439,
      "Ġforf": 2440,
      "utten": 2441,
      "arter": 2442,
      "Ã¸se": 2443,
      "bund": 2444,
      "Ġaug": 2445,
      "ikkert": 2446,
      "ĠThe": 2447,
      "Ġtrening": 2448,
      "Ġoppdag": 2449,
      "aling": 2450,
      "Ġtrygg": 2451,
      "kjÃ¸p": 2452,
      "ĠÃ©n": 2453,
      "skolen": 2454,
      "ins": 2455,
      "eks": 2456,
      "ĠTor": 2457,
      "ew": 2458,
      "iere": 2459,
      "ĠfÃ¸lgende": 2460,
      "Ġpasser": 2461,
      "rÃ¥d": 2462,
      "rere": 2463,
      "tok": 2464,
      "Ġfint": 2465,
      "ĠSex": 2466,
      "enne": 2467,
      "ĠTr": 2468,
      "Al": 2469,
      "drag": 2470,
      "Ġtilgang": 2471,
      "ĠTV": 2472,
      "Ã¸t": 2473,
      "Ġvold": 2474,
      "sland": 2475,
      "kret": 2476,
      "Ġoppmer": 2477,
      "Ġkjente": 2478,
      "Ġress": 2479,
      "ĠDag": 2480,
      "Ġutrolig": 2481,
      "Ġuk": 2482,
      "ĠâĢĿ": 2483,
      "NÃ¥r": 2484,
      "Ġreise": 2485,
      "ĠÃ¸ke": 2486,
      "ĠhÃ¸": 2487,
      "skorte": 2488,
      "delser": 2489,
      "ĠKar": 2490,
      "Ġjuni": 2491,
      "dommer": 2492,
      "ĠMange": 2493,
      "Ġ21": 2494,
      "ĠNy": 2495,
      "lekt": 2496,
      "Ġ40": 2497,
      "rol": 2498,
      "landet": 2499,
      "tember": 2500,
      "iss": 2501,
      "ateg": 2502,
      "Ġarrang": 2503,
      "Ġaltern": 2504,
      "avanger": 2505,
      "Ġutviklet": 2506,
      "\".": 2507,
      "verket": 2508,
      "Ġkrit": 2509,
      "orter": 2510,
      "Ã¸rdag": 2511,
      "vare": 2512,
      "sst": 2513,
      "gjÃ¸re": 2514,
      "parte": 2515,
      "Ġskyl": 2516,
      "Ġfeb": 2517,
      "sler": 2518,
      "Ġmoder": 2519,
      "ĠÃ¥pne": 2520,
      "ĠgjennomfÃ¸rt": 2521,
      "Ġul": 2522,
      "igheter": 2523,
      "reng": 2524,
      "ta": 2525,
      "Ġutgangspunkt": 2526,
      "istikk": 2527,
      "fikk": 2528,
      "ktige": 2529,
      "ju": 2530,
      "Ġeksp": 2531,
      "Ġmel": 2532,
      "Ġchat": 2533,
      "Ġ[": 2534,
      "ĠtÃ¸r": 2535,
      "Ġraskt": 2536,
      "ksjonen": 2537,
      "Ġregel": 2538,
      "50": 2539,
      "ĠâĢľ": 2540,
      "mÃ¥l": 2541,
      "Ġsteder": 2542,
      "ĠTrond": 2543,
      "nev": 2544,
      "18": 2545,
      "Ġadminist": 2546,
      "ĠHÃ¸y": 2547,
      "Ġbasert": 2548,
      "Ġlys": 2549,
      "bu": 2550,
      "Ġinneholder": 2551,
      "Ġnaturlig": 2552,
      "spro": 2553,
      "vember": 2554,
      "Ġoppn": 2555,
      "mot": 2556,
      "Ġide": 2557,
      "Ã¸ren": 2558,
      "co": 2559,
      "Ġeier": 2560,
      "Ġtran": 2561,
      "Ġstre": 2562,
      "Ġkjenner": 2563,
      "essig": 2564,
      "Ġelev": 2565,
      "ĠBr": 2566,
      "uttet": 2567,
      "Ġnatt": 2568,
      "Ġretning": 2569,
      "Ġselskap": 2570,
      "bart": 2571,
      "Ġjul": 2572,
      "mentet": 2573,
      "Ġhotell": 2574,
      "ĠBo": 2575,
      "Ġoppdrag": 2576,
      "ettere": 2577,
      "Ġenergi": 2578,
      "stru": 2579,
      "rert": 2580,
      "ĠSte": 2581,
      "ssy": 2582,
      "hÃ¸r": 2583,
      "Ġkonkurran": 2584,
      "Ã¥t": 2585,
      "Ġsosiale": 2586,
      "Ġsjel": 2587,
      "Ġbedrift": 2588,
      "ĠDersom": 2589,
      "visning": 2590,
      "ĠnÃ¸y": 2591,
      "kraft": 2592,
      "Ġklokke": 2593,
      "ĠRo": 2594,
      "Ġprakt": 2595,
      "Ġbarnet": 2596,
      "ongen": 2597,
      "qu": 2598,
      "Ġhvem": 2599,
      "ĠomrÃ¥der": 2600,
      "stendig": 2601,
      "Ġforbed": 2602,
      "Ġ000": 2603,
      "Ġinstit": 2604,
      "Ġkry": 2605,
      "ĠVest": 2606,
      "ald": 2607,
      "ĠfornÃ¸y": 2608,
      "ĠEng": 2609,
      "Ġdate": 2610,
      "ĠAndre": 2611,
      "person": 2612,
      "ja": 2613,
      "Ġresept": 2614,
      "ĠTrom": 2615,
      "Ġgrav": 2616,
      "unde": 2617,
      "Ġstopp": 2618,
      "ĠlÃ¦rer": 2619,
      "Ã¸tet": 2620,
      "Du": 2621,
      "Ġfjell": 2622,
      "vordan": 2623,
      "isen": 2624,
      "ydelig": 2625,
      "Ġhev": 2626,
      "ĠZ": 2627,
      "Ġnorm": 2628,
      "ĠvÃ¦r": 2629,
      "Ġnem": 2630,
      "avor": 2631,
      "ĠhÃ¸re": 2632,
      "Ġforbru": 2633,
      "ante": 2634,
      "Ġavt": 2635,
      "egg": 2636,
      "jÃ¸rn": 2637,
      "ativt": 2638,
      "Ġfest": 2639,
      "ĠTid": 2640,
      "spekt": 2641,
      "ko": 2642,
      "Ġmuligheter": 2643,
      "ĠX": 2644,
      "Ġnr": 2645,
      "Ġforeldre": 2646,
      "Ġinve": 2647,
      "da": 2648,
      "Ġsetter": 2649,
      "uell": 2650,
      "ologisk": 2651,
      "kort": 2652,
      "isp": 2653,
      "Ġdagens": 2654,
      "Ġoversikt": 2655,
      "Ġba": 2656,
      "ikring": 2657,
      "otte": 2658,
      "Ġerfaring": 2659,
      "Ġspillet": 2660,
      "Ġlokal": 2661,
      "mu": 2662,
      "ĠhÃ¥per": 2663,
      "Ġoffentlig": 2664,
      "Ġgjenopp": 2665,
      "aste": 2666,
      "Ġ198": 2667,
      "Ġplanlegg": 2668,
      "Ġvinter": 2669,
      "Ġsku": 2670,
      "Ġprosjekter": 2671,
      "ĠsÃ¸knad": 2672,
      "Ġtredje": 2673,
      "ober": 2674,
      "Ġvant": 2675,
      "ĠKommun": 2676,
      "Ġkroppen": 2677,
      "EL": 2678,
      "Ġjanuar": 2679,
      "ĠHelse": 2680,
      "Ã¸ndag": 2681,
      "hetene": 2682,
      "Ġlokale": 2683,
      "ile": 2684,
      "Ġforslag": 2685,
      "leve": 2686,
      "ete": 2687,
      "Ġpu": 2688,
      "Ġholdt": 2689,
      "Ġfotball": 2690,
      "Ġfunger": 2691,
      "Ġskrevet": 2692,
      "tekt": 2693,
      "jert": 2694,
      "unt": 2695,
      "Ġviste": 2696,
      "Ġderetter": 2697,
      "ING": 2698,
      "Ġfinans": 2699,
      "Ġfine": 2700,
      "Ġregn": 2701,
      "yret": 2702,
      "In": 2703,
      "komm": 2704,
      "oret": 2705,
      "ium": 2706,
      "kÃ¥r": 2707,
      "way": 2708,
      "ĠÃ¸nsket": 2709,
      "Ġpasi": 2710,
      "Ġvelger": 2711,
      "ruktur": 2712,
      "Ġviktige": 2713,
      "Ġfas": 2714,
      "Ġbevis": 2715,
      "ember": 2716,
      "ĠsÃ¸nn": 2717,
      "Ġpraksis": 2718,
      "ww": 2719,
      "Ġlege": 2720,
      "Ġnettsteder": 2721,
      "Ġbred": 2722,
      "visjon": 2723,
      "Ġsannsyn": 2724,
      "Ġtips": 2725,
      "Ġdigit": 2726,
      "Ġski": 2727,
      "Ġfys": 2728,
      "delt": 2729,
      "Ġkjemp": 2730,
      "Ġ=": 2731,
      "iks": 2732,
      "Ġvalgt": 2733,
      "Ġjobbe": 2734,
      "Ġprodukter": 2735,
      "vit": 2736,
      "Ġendringer": 2737,
      "Ġ23": 2738,
      "skning": 2739,
      "ilt": 2740,
      "Ġproblemer": 2741,
      "Ġsterk": 2742,
      "Ġflott": 2743,
      "Ã¸ke": 2744,
      "Ġvite": 2745,
      "vende": 2746,
      "nader": 2747,
      "our": 2748,
      "Ġprogram": 2749,
      "rand": 2750,
      "Ġmasse": 2751,
      "stid": 2752,
      "veien": 2753,
      "Ġ2010": 2754,
      "Ġ:)": 2755,
      "met": 2756,
      "bare": 2757,
      "Ġsamlet": 2758,
      "Ġkommunen": 2759,
      "esc": 2760,
      "ĠAt": 2761,
      "Ġblod": 2762,
      "Ġseptember": 2763,
      "Ġnemlig": 2764,
      "ĠIntern": 2765,
      "aceb": 2766,
      "ĠDerfor": 2767,
      "ĠforsÃ¸k": 2768,
      "Ġnaken": 2769,
      "ĠSol": 2770,
      "ĠmÃ¥ten": 2771,
      "mte": 2772,
      "oren": 2773,
      "Ġgammel": 2774,
      "sc": 2775,
      "Ġdaglig": 2776,
      "Ġsikkert": 2777,
      "Ġtross": 2778,
      "Ġpa": 2779,
      "Ġopptatt": 2780,
      "vin": 2781,
      "Ġhistorie": 2782,
      "enning": 2783,
      "Ġfremtid": 2784,
      "ĠStor": 2785,
      "Ġoms": 2786,
      "iz": 2787,
      "ĠdÃ¸de": 2788,
      "Ġaks": 2789,
      "riks": 2790,
      "ielle": 2791,
      "rapp": 2792,
      "ĠsprÃ¥k": 2793,
      "ĠLand": 2794,
      "Ġamerik": 2795,
      "AR": 2796,
      "Ġlik": 2797,
      "middel": 2798,
      "akere": 2799,
      "Ġdess": 2800,
      "200": 2801,
      "sep": 2802,
      "Ġtreff": 2803,
      "Ġforan": 2804,
      "ĠSver": 2805,
      "ĠstÃ¥": 2806,
      "eltet": 2807,
      "Ġslett": 2808,
      "dres": 2809,
      "Ġmuligheten": 2810,
      "mod": 2811,
      "Ġdesign": 2812,
      "ĠbestÃ¥r": 2813,
      "stat": 2814,
      "Ġfavor": 2815,
      "ĠGod": 2816,
      "Ġhelst": 2817,
      "Ġlyst": 2818,
      "Ġpot": 2819,
      "vann": 2820,
      "Ġinternasjonale": 2821,
      "ĠVer": 2822,
      "ung": 2823,
      "ĠhÃ¸yre": 2824,
      "14": 2825,
      "16": 2826,
      "ĠnÃ¦rmere": 2827,
      "Ġdom": 2828,
      "Ġbrans": 2829,
      "iÃ¸r": 2830,
      "Ġvirksomhet": 2831,
      "ĠunngÃ¥": 2832,
      "ĠKont": 2833,
      "Ġapril": 2834,
      "Ġbi": 2835,
      "Ġei": 2836,
      "Ġvedtak": 2837,
      "Ġven": 2838,
      "Ġhvorfor": 2839,
      "plan": 2840,
      "ĠMa": 2841,
      "dommen": 2842,
      "istri": 2843,
      "Ġkrever": 2844,
      "Ġhom": 2845,
      "nene": 2846,
      "vÃ¥": 2847,
      "king": 2848,
      "Ġlyd": 2849,
      "Ġsingle": 2850,
      "undersÃ¸k": 2851,
      "Ġinneb": 2852,
      "Ġmorgen": 2853,
      "Ġnovember": 2854,
      "uft": 2855,
      "elsk": 2856,
      "Ġur": 2857,
      "ĠAd": 2858,
      "Ġem": 2859,
      "fÃ¸lgelig": 2860,
      "oder": 2861,
      "ern": 2862,
      "ĠmÃ¥neder": 2863,
      "skriv": 2864,
      "Ġvek": 2865,
      "Ġresultater": 2866,
      "ith": 2867,
      "ĠdrÃ¸": 2868,
      "Ġfamilie": 2869,
      "Ġruss": 2870,
      "Ġsider": 2871,
      "ĠfÃ¸re": 2872,
      "Ġfores": 2873,
      "Ġbestil": 2874,
      "Ġstyre": 2875,
      "Ġdesember": 2876,
      "Ġsentral": 2877,
      "Ġkunder": 2878,
      "rosjektet": 2879,
      "ykke": 2880,
      "Ġmy": 2881,
      "ĠMer": 2882,
      "Ġhverdag": 2883,
      "ĠÃĺst": 2884,
      "sering": 2885,
      "Ġmars": 2886,
      "foren": 2887,
      "Ġytter": 2888,
      "lende": 2889,
      "ĠOver": 2890,
      "Ġprofil": 2891,
      "arm": 2892,
      "kal": 2893,
      "gitt": 2894,
      "asjons": 2895,
      "van": 2896,
      "ĠsjÃ¸": 2897,
      "kant": 2898,
      "slin": 2899,
      "Ġglad": 2900,
      "Ġfry": 2901,
      "com": 2902,
      "partementet": 2903,
      "Ġregistrer": 2904,
      "gram": 2905,
      "setning": 2906,
      "iker": 2907,
      "Ġbygget": 2908,
      "Ġsnart": 2909,
      "acebook": 2910,
      "Ġdele": 2911,
      "ĠfÃ¸rer": 2912,
      "Ġopprinn": 2913,
      "Ġja": 2914,
      "aget": 2915,
      "igur": 2916,
      "jed": 2917,
      "Ġtelefon": 2918,
      "organis": 2919,
      "varet": 2920,
      "Ġhjelper": 2921,
      "aen": 2922,
      "lis": 2923,
      "Ġforl": 2924,
      "Ġuansett": 2925,
      "Ġban": 2926,
      "TE": 2927,
      "asjer": 2928,
      "plassen": 2929,
      "ved": 2930,
      "Ġuav": 2931,
      "Ġviagra": 2932,
      "hai": 2933,
      "IL": 2934,
      "ity": 2935,
      "livet": 2936,
      "Ġmask": 2937,
      "Ġtu": 2938,
      "vand": 2939,
      "Ġkombin": 2940,
      "hver": 2941,
      "yen": 2942,
      "behandling": 2943,
      "Ġpresen": 2944,
      "Ġhenhold": 2945,
      "splan": 2946,
      "Og": 2947,
      "Ġfart": 2948,
      "eres": 2949,
      "17": 2950,
      "ĠMat": 2951,
      "Ġdetal": 2952,
      "ĠÃ¥rets": 2953,
      "Ġbrann": 2954,
      "Ġskog": 2955,
      "Ġident": 2956,
      "ĠlÃ¸sninger": 2957,
      "ĠFinn": 2958,
      "ledning": 2959,
      "Ġbefolk": 2960,
      "Ġbilen": 2961,
      "Ġverdi": 2962,
      "aland": 2963,
      "tekn": 2964,
      "ellen": 2965,
      "Ġmis": 2966,
      "Ġnov": 2967,
      "skl": 2968,
      "Ġ...": 2969,
      "Ġvist": 2970,
      "Ġklare": 2971,
      "somt": 2972,
      "Ġinnbygg": 2973,
      "ĠfÃ¸ler": 2974,
      "mmene": 2975,
      "Ġselskapet": 2976,
      "Ġburde": 2977,
      "Ġesc": 2978,
      "Ġtydelig": 2979,
      "Ġmeter": 2980,
      "Ġbrukere": 2981,
      "Ġorgan": 2982,
      "fo": 2983,
      "inen": 2984,
      "Ġmon": 2985,
      "Ġstyrke": 2986,
      "Ġyr": 2987,
      "usjoner": 2988,
      "enset": 2989,
      "Ġsammenlig": 2990,
      "ple": 2991,
      "ĠopplÃ¦ring": 2992,
      "fjord": 2993,
      "Ġsven": 2994,
      "Ġhud": 2995,
      "Ġlegges": 2996,
      "Ġgangen": 2997,
      "AL": 2998,
      "Ġtall": 2999,
      "bas": 3000,
      "Ġavtale": 3001,
      "âĢĻ": 3002,
      "Ġinteress": 3003,
      "Ġkommunikasjon": 3004,
      "Ġsist": 3005,
      "ĠHans": 3006,
      "Ġ2009": 3007,
      "ĠlÃ¸rdag": 3008,
      "ĠSh": 3009,
      "sd": 3010,
      "Ġsexy": 3011,
      "Ġslutten": 3012,
      "Ġoktober": 3013,
      "ON": 3014,
      "ĠPer": 3015,
      "ca": 3016,
      "utte": 3017,
      "batt": 3018,
      ".[": 3019,
      "ruar": 3020,
      "13": 3021,
      "Ġsto": 3022,
      "rene": 3023,
      "Ġleve": 3024,
      "Ġoffentlige": 3025,
      "dige": 3026,
      "ĠmÃ¸tte": 3027,
      "Ġoppgaver": 3028,
      "ĠprÃ¸v": 3029,
      "ĠNett": 3030,
      "uk": 3031,
      "Ġkonf": 3032,
      "Ġhensyn": 3033,
      "Ġnettopp": 3034,
      "Med": 3035,
      "ollen": 3036,
      "Ġ197": 3037,
      "nett": 3038,
      "Ġfantastisk": 3039,
      "ĠAlt": 3040,
      "Ġforskjell": 3041,
      "Ġhvilken": 3042,
      "ĠPor": 3043,
      "Ġporn": 3044,
      "Ġenten": 3045,
      "Ġjev": 3046,
      "Ġbidrar": 3047,
      "Ġhin": 3048,
      "Ġarbeider": 3049,
      "arder": 3050,
      "ĠstÃ¸rr": 3051,
      "ĠkjÃ¦reste": 3052,
      "Ġstri": 3053,
      "Ġren": 3054,
      "ĠSel": 3055,
      "Ġklass": 3056,
      "Ġstille": 3057,
      "ĠTrondheim": 3058,
      "ĠprÃ¸ver": 3059,
      "Ġkateg": 3060,
      "Ġaugust": 3061,
      "ift": 3062,
      "ĠhÃ¸r": 3063,
      "ersjon": 3064,
      "ĠhÃ¸st": 3065,
      "Ġlettere": 3066,
      "Ġmerke": 3067,
      "uer": 3068,
      "Ġbildet": 3069,
      "Ġref": 3070,
      "apir": 3071,
      "Ġperf": 3072,
      "Ġhygg": 3073,
      "Ġbord": 3074,
      "Ġark": 3075,
      "ĠifÃ¸lge": 3076,
      "ban": 3077,
      "full": 3078,
      "Ġmist": 3079,
      "ikke": 3080,
      "Ġtilby": 3081,
      "RK": 3082,
      "Ġeskorte": 3083,
      "Ġhy": 3084,
      "sekv": 3085,
      "Ġweb": 3086,
      "gifter": 3087,
      "ED": 3088,
      "verre": 3089,
      "ĠÃ¸ker": 3090,
      "Ġtilsvar": 3091,
      "Ġutt": 3092,
      "mÃ¥": 3093,
      "resen": 3094,
      "Ã¸g": 3095,
      "Ġgodkj": 3096,
      "dere": 3097,
      "ĠTy": 3098,
      "Ġvest": 3099,
      "ĠQ": 3100,
      "Ġtransport": 3101,
      "odet": 3102,
      "Ġdatter": 3103,
      "ĠGjennom": 3104,
      "ĠChrist": 3105,
      "Ġmeget": 3106,
      "Ġprivat": 3107,
      "ses": 3108,
      "pris": 3109,
      "ĠFoto": 3110,
      "Ġ60": 3111,
      "Ġvare": 3112,
      "Ġneg": 3113,
      "ĠÃħr": 3114,
      "Ġkurs": 3115,
      "Ġvurdering": 3116,
      "Her": 3117,
      "Ġfe": 3118,
      "jenesten": 3119,
      "mÃ¸te": 3120,
      "Ġvedlike": 3121,
      "ĠmÃ¸r": 3122,
      "Ġskikk": 3123,
      "Ġalene": 3124,
      "Ġbetale": 3125,
      "gene": 3126,
      "Ġsammenheng": 3127,
      "smid": 3128,
      "jelp": 3129,
      "Â«": 3130,
      "Ġsitter": 3131,
      "enfor": 3132,
      "nte": 3133,
      "fort": 3134,
      "Ġsendt": 3135,
      "inget": 3136,
      "par": 3137,
      "sav": 3138,
      "ĠTa": 3139,
      "ĠRes": 3140,
      "repet": 3141,
      "Ġbereg": 3142,
      "Ġolje": 3143,
      "dann": 3144,
      "ĠVÃ¥r": 3145,
      "\",": 3146,
      "ĠEuropa": 3147,
      "ĠHe": 3148,
      "ĠTe": 3149,
      "ras": 3150,
      "Ġrek": 3151,
      "eland": 3152,
      "stemet": 3153,
      "Ġdame": 3154,
      "Ġing": 3155,
      "nor": 3156,
      "ĠSu": 3157,
      "ĠFran": 3158,
      "ĠsÃ¸ndag": 3159,
      "drene": 3160,
      "ĠGo": 3161,
      "Ġmidler": 3162,
      "pros": 3163,
      "forhold": 3164,
      "Ġdelta": 3165,
      "ĠPar": 3166,
      "Ġsykdom": 3167,
      "ĠRom": 3168,
      "ham": 3169,
      "Ġrev": 3170,
      "fly": 3171,
      "Ġsnakke": 3172,
      "ĠFri": 3173,
      "ppet": 3174,
      "Ġflotte": 3175,
      "ilig": 3176,
      "ĠinnebÃ¦rer": 3177,
      "edag": 3178,
      "ĠDan": 3179,
      "Ġyng": 3180,
      "Ġbudsjett": 3181,
      "ĠProduksjon": 3182,
      "ĠtÃ¸": 3183,
      "Ġgrunnlag": 3184,
      "....": 3185,
      "ĠKon": 3186,
      "Ġelever": 3187,
      "Ġutviklingen": 3188,
      "Ġkund": 3189,
      "forbund": 3190,
      "lin": 3191,
      "venn": 3192,
      "stoff": 3193,
      "Ġvideoer": 3194,
      "len": 3195,
      "Ġturen": 3196,
      "kjÃ¸r": 3197,
      "lio": 3198,
      "Et": 3199,
      "rivil": 3200,
      "Ġdatingside": 3201,
      "mannen": 3202,
      "Ġgutt": 3203,
      "ĠhÃ¸ye": 3204,
      "deles": 3205,
      "Ġrelev": 3206,
      "allen": 3207,
      "vek": 3208,
      "Ġtjeneste": 3209,
      "Ġsykehus": 3210,
      "Ġfungerer": 3211,
      "stillinger": 3212,
      "Ġtett": 3213,
      "Ġvirksom": 3214,
      "ĠEU": 3215,
      "Ġutfor": 3216,
      "ĠverktÃ¸y": 3217,
      "Ġvok": 3218,
      "etÃ¸y": 3219,
      "egge": 3220,
      "Ġinvi": 3221,
      "Ġledd": 3222,
      "ilde": 3223,
      "xx": 3224,
      "Ġgu": 3225,
      "asjonene": 3226,
      "Ġprofesjon": 3227,
      "NÃ¥": 3228,
      "Ġvit": 3229,
      "Da": 3230,
      "Ġendelig": 3231,
      "valit": 3232,
      "ĠselvfÃ¸lgelig": 3233,
      "Ġsaker": 3234,
      "ach": 3235,
      "Ġnettstedet": 3236,
      "melding": 3237,
      "iled": 3238,
      "spil": 3239,
      "yse": 3240,
      "oc": 3241,
      "Ġgjeld": 3242,
      "Ġ2008": 3243,
      "Ġmeng": 3244,
      "ekter": 3245,
      "veis": 3246,
      "enting": 3247,
      "rike": 3248,
      "ĠAg": 3249,
      "rÃ¥det": 3250,
      "Ġtenker": 3251,
      "ĠHol": 3252,
      "ott": 3253,
      "Ġ26": 3254,
      "ĠbÃ¸ker": 3255,
      "isjonen": 3256,
      "Ġomsorg": 3257,
      "ĠStavanger": 3258,
      "Ġopplysninger": 3259,
      "spros": 3260,
      "Ġbut": 3261,
      "OL": 3262,
      "sut": 3263,
      "Ġnettet": 3264,
      "Ġressur": 3265,
      "Ġsentrum": 3266,
      "Ġtrafikk": 3267,
      "affe": 3268,
      "Ġlar": 3269,
      "Ġperioden": 3270,
      "ikere": 3271,
      "egÃ¥ende": 3272,
      "ĠVel": 3273,
      "ĠNorske": 3274,
      "Ġlangs": 3275,
      "Ġinterv": 3276,
      "Ġnavnet": 3277,
      "Ġstoff": 3278,
      "Ġfolke": 3279,
      "sol": 3280,
      "Ġresten": 3281,
      "Ġkolle": 3282,
      "ĠAnt": 3283,
      "Ġmakt": 3284,
      "Ġdefin": 3285,
      "ĠrÃ¸": 3286,
      "Ġ28": 3287,
      "Ġfebruar": 3288,
      "ĠbÃ¦re": 3289,
      "utvalget": 3290,
      "Ġoverra": 3291,
      "Ġbetydning": 3292,
      "ĠblÃ¥": 3293,
      "Ġforut": 3294,
      "Ġvurdere": 3295,
      "ĠÃ¥pnet": 3296,
      "ĠfornÃ¸yd": 3297,
      "Ġregjer": 3298,
      "Ġforrige": 3299,
      "Ġmand": 3300,
      "gaven": 3301,
      "Ã¸nner": 3302,
      "Ġtyper": 3303,
      "Ġ27": 3304,
      "serv": 3305,
      "ĠBygg": 3306,
      "ĠService": 3307,
      "kkelig": 3308,
      "rives": 3309,
      "ĠHvordan": 3310,
      "Ã¸rene": 3311,
      "SÃ¥": 3312,
      "Ġvarme": 3313,
      "Ġvari": 3314,
      "Ġtor": 3315,
      "Ġpolitiet": 3316,
      "AT": 3317,
      "Ġnettb": 3318,
      "fÃ¸lging": 3319,
      "fest": 3320,
      "ĠHvor": 3321,
      "Ã¸nne": 3322,
      "Ġsjekke": 3323,
      "Ġinkludert": 3324,
      "fyl": 3325,
      "insi": 3326,
      "inter": 3327,
      "ĠmÃ¥ter": 3328,
      "ase": 3329,
      "ES": 3330,
      "Ġatt": 3331,
      "Ġtekst": 3332,
      "Ġkob": 3333,
      "Ġoppfyl": 3334,
      "ekte": 3335,
      "Ġene": 3336,
      "ĠHoved": 3337,
      "Ġfredag": 3338,
      "mor": 3339,
      "Ġsikker": 3340,
      "ienter": 3341,
      "Mer": 3342,
      "rim": 3343,
      "Ġpubli": 3344,
      "Ġredusere": 3345,
      "Ġth": 3346,
      "Ġstarter": 3347,
      "Ġkomment": 3348,
      "ebygg": 3349,
      "ĠBy": 3350,
      "ĠNo": 3351,
      "Ġgrunnlegg": 3352,
      "Ġmoderne": 3353,
      "ĠLa": 3354,
      "ittel": 3355,
      "Ġtakk": 3356,
      "Ġstandard": 3357,
      "Ġhovedsak": 3358,
      "OK": 3359,
      "ital": 3360,
      "Ġkampen": 3361,
      "Til": 3362,
      "Ġmidt": 3363,
      "Ġlille": 3364,
      "Ġtilfeller": 3365,
      "Ġinteresse": 3366,
      "polit": 3367,
      "stein": 3368,
      "Ġgruppe": 3369,
      "Ġklarer": 3370,
      "agn": 3371,
      "Ġdokument": 3372,
      "Ġutfordringer": 3373,
      "Ġlavere": 3374,
      "Ġartikk": 3375,
      "Ġgodkjent": 3376,
      "vok": 3377,
      "usk": 3378,
      "ransport": 3379,
      "Ġmarkeds": 3380,
      "iell": 3381,
      "Ġbrukte": 3382,
      "Ġleverand": 3383,
      "Ġdoku": 3384,
      "ĠMin": 3385,
      "bel": 3386,
      "Ġme": 3387,
      "enta": 3388,
      "Ġjakt": 3389,
      "ĠSand": 3390,
      "ĠoppnÃ¥": 3391,
      "Ġare": 3392,
      "esiali": 3393,
      "handel": 3394,
      "Ġlengre": 3395,
      "Ġautom": 3396,
      "ĠNew": 3397,
      "ettes": 3398,
      "Ġpe": 3399,
      "Ġselve": 3400,
      "ĠklÃ¦r": 3401,
      "Ġelevene": 3402,
      "Ġrolle": 3403,
      "Ġsosial": 3404,
      "iblio": 3405,
      "Ġvirker": 3406,
      "skj": 3407,
      "ĠÃ¸del": 3408,
      "ĠgjennomfÃ¸re": 3409,
      "Ġindiv": 3410,
      "Ġpensjon": 3411,
      "ologiske": 3412,
      "Ġrepresent": 3413,
      "Ġva": 3414,
      "mar": 3415,
      "Ġtime": 3416,
      "Ġopplever": 3417,
      "Ġstarte": 3418,
      "Ġfortsette": 3419,
      "ĠIT": 3420,
      "ktÃ¸r": 3421,
      "holdt": 3422,
      "yst": 3423,
      "Ġfylke": 3424,
      "ykker": 3425,
      "hvert": 3426,
      "Ġtvil": 3427,
      "itets": 3428,
      "rÃ¸r": 3429,
      "Ġvirke": 3430,
      "Ġslags": 3431,
      "gere": 3432,
      "produksjon": 3433,
      "Ġeuro": 3434,
      "Ġelsker": 3435,
      "Ġpublik": 3436,
      "ĠUng": 3437,
      "Ġgjennomsnitt": 3438,
      "Ġoppleve": 3439,
      "lid": 3440,
      "gangen": 3441,
      "Ġhomo": 3442,
      "ata": 3443,
      "Ã¸yt": 3444,
      "Ġsvart": 3445,
      "Ġskade": 3446,
      "Ved": 3447,
      "ians": 3448,
      "Ġavhengig": 3449,
      "ĠSverige": 3450,
      "Ġsannsynlig": 3451,
      "nummer": 3452,
      "ĠTo": 3453,
      "Ã¸ver": 3454,
      "ĠInter": 3455,
      "Ġenkle": 3456,
      "ĠsnÃ¸": 3457,
      "Ġpost": 3458,
      "Ġlager": 3459,
      "Ġetablert": 3460,
      "Ġversjon": 3461,
      "Ġformid": 3462,
      "vist": 3463,
      "ĠhÃ¸sten": 3464,
      "rans": 3465,
      "Ġbekre": 3466,
      "ĠHel": 3467,
      "rykk": 3468,
      "Ġsterke": 3469,
      "Ã¥re": 3470,
      "Sk": 3471,
      "Ġpersonlig": 3472,
      "omrÃ¥det": 3473,
      "OS": 3474,
      "Ġka": 3475,
      "Ġmotor": 3476,
      "ĠrÃ¥": 3477,
      "Ã¸kt": 3478,
      "ĠNT": 3479,
      "ĠFin": 3480,
      "Ġspillere": 3481,
      "dde": 3482,
      "Ġgul": 3483,
      "eliv": 3484,
      "kka": 3485,
      "ĠStort": 3486,
      "Ġsky": 3487,
      "Ġ196": 3488,
      "Ġfamilien": 3489,
      "Ġkonsekv": 3490,
      "Ġvak": 3491,
      "ĠFred": 3492,
      "ĠJes": 3493,
      "ĠsÃ¥nn": 3494,
      "ĠVar": 3495,
      "ena": 3496,
      "ĠSide": 3497,
      "Ġenklere": 3498,
      "mon": 3499,
      "industri": 3500,
      "Ġkur": 3501,
      "Ġbegynne": 3502,
      "Denne": 3503,
      "asino": 3504,
      "arbeide": 3505,
      "nali": 3506,
      "ĠFyl": 3507,
      "ĠhÃ¸yde": 3508,
      "Ġglede": 3509,
      "Som": 3510,
      "Ġbutikk": 3511,
      "Ġresultat": 3512,
      "Ġforsvar": 3513,
      "Ġspise": 3514,
      "usjonen": 3515,
      "IS": 3516,
      "ders": 3517,
      "ork": 3518,
      "Ġdo": 3519,
      "An": 3520,
      "Ġprivate": 3521,
      "Ã¥p": 3522,
      "Ġinnlegget": 3523,
      "plikt": 3524,
      "ĠÃ¸konomi": 3525,
      "nende": 3526,
      "start": 3527,
      "sagt": 3528,
      "Ġetabler": 3529,
      "ktet": 3530,
      "Ġsamfunnet": 3531,
      "staur": 3532,
      "Ġfu": 3533,
      "smÃ¥let": 3534,
      "ĠMid": 3535,
      "onn": 3536,
      "Ġstraff": 3537,
      "Ġregistrert": 3538,
      "Ġbesl": 3539,
      "Ġaktiviteter": 3540,
      "bladet": 3541,
      "ĠutgjÃ¸r": 3542,
      "leie": 3543,
      "enk": 3544,
      "Ġ+": 3545,
      "Ġgjeng": 3546,
      "ĠstrÃ¸m": 3547,
      "hÃ¸y": 3548,
      "Ã¥rene": 3549,
      "ĠÃ¸nske": 3550,
      "dire": 3551,
      "Ã¸rs": 3552,
      "Ã¦ringen": 3553,
      "Ġbestemt": 3554,
      "Ġkm": 3555,
      "fÃ¸rte": 3556,
      "Ġfarger": 3557,
      "Ġhum": 3558,
      "Ġmarkedet": 3559,
      "ement": 3560,
      "ĠKultur": 3561,
      "Ġfr": 3562,
      "Ġuttrykk": 3563,
      "attet": 3564,
      "Ġkalt": 3565,
      "orier": 3566,
      "ĠGe": 3567,
      "OM": 3568,
      "Ġ2007": 3569,
      "ialis": 3570,
      "ringer": 3571,
      "Ã¸tte": 3572,
      "Ġmedisin": 3573,
      "anne": 3574,
      "Ġtype": 3575,
      "ptim": 3576,
      "Ġutsatt": 3577,
      "ĠHam": 3578,
      "Ġosv": 3579,
      "Ġass": 3580,
      "klo": 3581,
      "terte": 3582,
      "enet": 3583,
      "Ġnasjonale": 3584,
      "ĠslÃ¥": 3585,
      "Ġsesong": 3586,
      "Ġreguler": 3587,
      "ĠkjÃ¸kken": 3588,
      "vent": 3589,
      "ande": 3590,
      "ĠkjÃ¸per": 3591,
      "esser": 3592,
      "ĠKn": 3593,
      "ĠDating": 3594,
      "imot": 3595,
      "Ġsat": 3596,
      "Ġleser": 3597,
      "Ã¶": 3598,
      "Ġgis": 3599,
      "ĠtrÃ¥d": 3600,
      "Ġfilmer": 3601,
      "Ġdro": 3602,
      "rale": 3603,
      "Ġrisiko": 3604,
      "Ġskil": 3605,
      "Norge": 3606,
      "ident": 3607,
      "Ġfortsetter": 3608,
      "hav": 3609,
      "ure": 3610,
      "Ġves": 3611,
      "Ġmennesk": 3612,
      "Ġskikkelig": 3613,
      "maet": 3614,
      "Ġjobben": 3615,
      "ight": 3616,
      "nelsen": 3617,
      "Ġendre": 3618,
      "Ut": 3619,
      "iserte": 3620,
      "ĠIngen": 3621,
      "Sp": 3622,
      "Ġrefer": 3623,
      "ĠEller": 3624,
      "ĠformÃ¥l": 3625,
      "Ġ29": 3626,
      "ĠÃ¸st": 3627,
      "ĠDes": 3628,
      "Ġ#": 3629,
      "Ġforvalt": 3630,
      "srett": 3631,
      "idene": 3632,
      "afil": 3633,
      "ĠKom": 3634,
      "stud": 3635,
      "Ġskjedde": 3636,
      "ĠAker": 3637,
      "Ġful": 3638,
      "irasjon": 3639,
      "Ġkos": 3640,
      "ĠSv": 3641,
      "Ġoverfor": 3642,
      "ule": 3643,
      "jeneste": 3644,
      "stemer": 3645,
      "delingen": 3646,
      "ĠStud": 3647,
      "Ġsagt": 3648,
      "Ġenhver": 3649,
      "sopp": 3650,
      "Ġvalgte": 3651,
      "skommun": 3652,
      "Ġopphold": 3653,
      "Ġaktiv": 3654,
      "beh": 3655,
      "AS": 3656,
      "Ġtas": 3657,
      "Ġbloggen": 3658,
      "ash": 3659,
      "ledes": 3660,
      "ĠCar": 3661,
      "Hvis": 3662,
      "jekk": 3663,
      "ĠÃ¸konomisk": 3664,
      "Ġval": 3665,
      "ĠHen": 3666,
      "instit": 3667,
      "Ġ194": 3668,
      "Ġpriori": 3669,
      "Ġtrykk": 3670,
      "Ġtilsyn": 3671,
      "kel": 3672,
      "Ġbon": 3673,
      "angen": 3674,
      "Ġrelig": 3675,
      "alder": 3676,
      "Ġsterkt": 3677,
      "isjoner": 3678,
      "Ġlange": 3679,
      "25": 3680,
      "Ġtun": 3681,
      "informasjon": 3682,
      "ĠSve": 3683,
      "Ġmeste": 3684,
      "Ġvekst": 3685,
      "Ġjobbet": 3686,
      "Ġinvester": 3687,
      "Ġpartner": 3688,
      "Ġeiendom": 3689,
      "ovasjon": 3690,
      "Ġprem": 3691,
      "kast": 3692,
      "ĠHÃ¥": 3693,
      "Ġgreit": 3694,
      "jul": 3695,
      "ĠkjÃ¦resten": 3696,
      "unksjon": 3697,
      "ĠkjÃ¸rer": 3698,
      "valitet": 3699,
      "ĠHal": 3700,
      "bered": 3701,
      "ĠÃ¸konomiske": 3702,
      "Ġfarge": 3703,
      "Ġunna": 3704,
      "aksjon": 3705,
      "peratur": 3706,
      "ppen": 3707,
      "Ġtilpass": 3708,
      "Ġklarte": 3709,
      "Ġfortelle": 3710,
      "Ġteknologi": 3711,
      "ix": 3712,
      "Ġtusen": 3713,
      "Ġbod": 3714,
      "Ġreis": 3715,
      "Ġkommunene": 3716,
      "ften": 3717,
      "ĠTjenester": 3718,
      "Ġmedier": 3719,
      "Ġbal": 3720,
      "Ã¸tt": 3721,
      "ari": 3722,
      ".Â»": 3723,
      "ĠpopulÃ¦re": 3724,
      "skri": 3725,
      "Ġorganisasjon": 3726,
      "ĠundersÃ¸kelse": 3727,
      "ĠRus": 3728,
      "smÃ¸te": 3729,
      "ho": 3730,
      "Ġkontrol": 3731,
      "onomi": 3732,
      "Ġpunkt": 3733,
      "Ġinspir": 3734,
      "nivÃ¥": 3735,
      "lob": 3736,
      "ĠutfÃ¸rt": 3737,
      "Ġkirke": 3738,
      "ĠNRK": 3739,
      "Ġdriver": 3740,
      "ĠavgjÃ¸rende": 3741,
      "ĠkjÃ¸pt": 3742,
      "ĠinngÃ¥": 3743,
      "elden": 3744,
      "spart": 3745,
      "za": 3746,
      "Ġjuli": 3747,
      "Ġvenstre": 3748,
      "ĠBarn": 3749,
      "ĠFacebook": 3750,
      "stet": 3751,
      "ĠFre": 3752,
      "Ġsport": 3753,
      "Ġamb": 3754,
      "Ġgrunnleggende": 3755,
      "Ġrestaur": 3756,
      "Ġles": 3757,
      "Ġheter": 3758,
      "akne": 3759,
      "Ã¥de": 3760,
      "ĠgrÃ¸nn": 3761,
      "Ġpolitiske": 3762,
      "Ġforfatter": 3763,
      "yrÃ¥": 3764,
      "attende": 3765,
      "ĠIs": 3766,
      "Ġ80": 3767,
      "eri": 3768,
      "Ġarbeidst": 3769,
      "):": 3770,
      "Ġtver": 3771,
      "Ġoppdatert": 3772,
      "alu": 3773,
      "Ġalternativ": 3774,
      "Ġstudenter": 3775,
      "ĠhÃ¸yeste": 3776,
      "Ġvedlikehold": 3777,
      "vide": 3778,
      "holdning": 3779,
      "Ġ70": 3780,
      "Ġkrist": 3781,
      "ĠOff": 3782,
      "Ġellers": 3783,
      "Ġslikt": 3784,
      "Ġansvarlig": 3785,
      "ales": 3786,
      "Ġfrivil": 3787,
      "Ġhjerte": 3788,
      "ĠSkj": 3789,
      "bord": 3790,
      "talen": 3791,
      "sikring": 3792,
      "Ġstilling": 3793,
      "Ġjule": 3794,
      "Ġnasjonal": 3795,
      "arked": 3796,
      "Ġpotens": 3797,
      "Ġkunde": 3798,
      "ana": 3799,
      "Ġservice": 3800,
      "ĠsÃ¥k": 3801,
      "ĠÂ§": 3802,
      "Ġmag": 3803,
      "ĠmÃ¸tet": 3804,
      "ĠÃ¸yeb": 3805,
      "ĠVid": 3806,
      "alif": 3807,
      "Ġgjenopprett": 3808,
      "Ġdato": 3809,
      "Ġskrev": 3810,
      "ĠBank": 3811,
      "ĠÃĺk": 3812,
      "slaget": 3813,
      "punkt": 3814,
      "Ġmilit": 3815,
      "Ġvarer": 3816,
      "Ġaner": 3817,
      "Ġvider": 3818,
      "Ar": 3819,
      "ato": 3820,
      "Ġstol": 3821,
      "Ġregler": 3822,
      "unnen": 3823,
      "imm": 3824,
      "uren": 3825,
      "Ġbenyttes": 3826,
      "Ġstudie": 3827,
      "gruppen": 3828,
      "kommen": 3829,
      "Ġinnvand": 3830,
      "Ġeksister": 3831,
      "Ġtilsvarende": 3832,
      "itu": 3833,
      "Ġvoksen": 3834,
      "isme": 3835,
      "Ġyngre": 3836,
      "merket": 3837,
      "ĠInternett": 3838,
      "ĠoppfÃ¸lging": 3839,
      "Ġinntil": 3840,
      "Ġfred": 3841,
      "Ġkonkurranse": 3842,
      "Ġbedrifter": 3843,
      "kkene": 3844,
      "bed": 3845,
      "Ġge": 3846,
      "Ġkarakter": 3847,
      "skont": 3848,
      "Un": 3849,
      "stander": 3850,
      "dating": 3851,
      "kjente": 3852,
      "rienter": 3853,
      "styret": 3854,
      "ĠVis": 3855,
      "Han": 3856,
      "loven": 3857,
      "Ġskaper": 3858,
      "Ġfullt": 3859,
      "ansvar": 3860,
      "fritt": 3861,
      "-)": 3862,
      "ĠUl": 3863,
      "Ġ2006": 3864,
      "Ġescort": 3865,
      "alene": 3866,
      "ĠKjÃ¸p": 3867,
      "sto": 3868,
      "Ġutover": 3869,
      "Ġsign": 3870,
      "Ġtab": 3871,
      "Ġtom": 3872,
      "ĠSc": 3873,
      "ĠSlik": 3874,
      "ĠCo": 3875,
      "ĠomrÃ¥de": 3876,
      "24": 3877,
      "Ġvedtatt": 3878,
      "Ġretningslin": 3879,
      "Ġavvik": 3880,
      "Ġforret": 3881,
      "Ġjf": 3882,
      "Ġhyggelig": 3883,
      "Ġforeg": 3884,
      "Ġopplevelse": 3885,
      "Ġregjeringen": 3886,
      "bygging": 3887,
      "stillingen": 3888,
      "Ġsituasjonen": 3889,
      "ĠSch": 3890,
      "Ġâ": 3891,
      "prÃ¸": 3892,
      "Ġhvit": 3893,
      "ĠSÃ¸k": 3894,
      "ĠKanskje": 3895,
      "steder": 3896,
      "Ġjour": 3897,
      "ĠÃ¥pner": 3898,
      "Ġspor": 3899,
      "Ã¦ren": 3900,
      "smiljÃ¸": 3901,
      "Ġivaret": 3902,
      "skland": 3903,
      "Ġkong": 3904,
      "Ġfiske": 3905,
      "Ġblom": 3906,
      "ĠkjÃ¸tt": 3907,
      "Ġfree": 3908,
      "abel": 3909,
      "rettel": 3910,
      "Ġnevnt": 3911,
      "Ġgutter": 3912,
      "Ġgrupper": 3913,
      "Ġindivid": 3914,
      "Ġskrift": 3915,
      "Ġrepresen": 3916,
      "Ġrim": 3917,
      "Ġhodet": 3918,
      "ĠvideregÃ¥ende": 3919,
      "Ġnettsted": 3920,
      "Ġkvalif": 3921,
      "Ġutn": 3922,
      "Ġperiode": 3923,
      "siden": 3924,
      "delag": 3925,
      "Ġutvid": 3926,
      "Ġselvsagt": 3927,
      "Ġbetydelig": 3928,
      "Ġabsol": 3929,
      "Ġtilkn": 3930,
      "atelse": 3931,
      "Ġamerikanske": 3932,
      "ĠÃĺv": 3933,
      "Ġdeltak": 3934,
      "Ġvanlige": 3935,
      "Ġinvol": 3936,
      "ĠSamtidig": 3937,
      "ĠFr": 3938,
      "Ġwith": 3939,
      "ĠJohn": 3940,
      "amera": 3941,
      "Ġbu": 3942,
      "AV": 3943,
      "Ã¦rings": 3944,
      "Ġflyttet": 3945,
      "Ġkvelden": 3946,
      "KT": 3947,
      "Ġsatte": 3948,
      "Ġinnsats": 3949,
      "Ġhomofil": 3950,
      "Ġ'": 3951,
      "ĠgÃ¸y": 3952,
      "Ġtreng": 3953,
      "ogle": 3954,
      "aktig": 3955,
      "Ġnab": 3956,
      "Ġvakre": 3957,
      "irsdag": 3958,
      "Ġparker": 3959,
      "Ġlesb": 3960,
      "Ġtillit": 3961,
      "Ġytterligere": 3962,
      "Ġsuper": 3963,
      "alet": 3964,
      "Ġhardt": 3965,
      "Ġfyr": 3966,
      "Ġstyret": 3967,
      "rening": 3968,
      "Ġbestemm": 3969,
      "Ġhuset": 3970,
      "Ġengelsk": 3971,
      "Ġbom": 3972,
      "Ġreiser": 3973,
      "Ġgro": 3974,
      "sa": 3975,
      "utselig": 3976,
      "Ġmannen": 3977,
      "ĠSiden": 3978,
      "plasser": 3979,
      "Ġfran": 3980,
      "ansert": 3981,
      "annonser": 3982,
      "Ġlog": 3983,
      "ĠFl": 3984,
      "Ġkommuner": 3985,
      "Ġrut": 3986,
      "handler": 3987,
      "engene": 3988,
      "Ġinternett": 3989,
      "ĠKunst": 3990,
      "ĠtenÃ¥r": 3991,
      "ĠMÃ¸tested": 3992,
      "Ġuavhengig": 3993,
      "tali": 3994,
      "ich": 3995,
      "ssel": 3996,
      "ogn": 3997,
      "asitet": 3998,
      "stemm": 3999,
      "Ġforsv": 4000,
      "tokoll": 4001,
      "Ġtotalt": 4002,
      "ph": 4003,
      "Ġelektron": 4004,
      "parten": 4005,
      "ekn": 4006,
      "Ġteam": 4007,
      "ath": 4008,
      "Ġlave": 4009,
      "Ġdistri": 4010,
      "ferdig": 4011,
      "Ġendring": 4012,
      "MS": 4013,
      "ĠsÃ¸rge": 4014,
      "dy": 4015,
      "shus": 4016,
      "iktig": 4017,
      "Ġpublikum": 4018,
      "gruppe": 4019,
      "amma": 4020,
      "ĠOgsÃ¥": 4021,
      "ĠnÃ¦rheten": 4022,
      "Ġhopp": 4023,
      "akgrunn": 4024,
      "inge": 4025,
      "ĠforhÃ¥nd": 4026,
      "Ġutform": 4027,
      "ĠlÃ¦ring": 4028,
      "Ġrussiske": 4029,
      "Ġfett": 4030,
      "redning": 4031,
      "lede": 4032,
      "Ġvinner": 4033,
      "rot": 4034,
      "omrÃ¥der": 4035,
      "inst": 4036,
      "mens": 4037,
      "Ġmote": 4038,
      "skriften": 4039,
      "Ġoptim": 4040,
      "Ġuniversitet": 4041,
      "Ġamat": 4042,
      "Ġpriser": 4043,
      "inister": 4044,
      "Ġspesiali": 4045,
      "byg": 4046,
      "Ġforebygg": 4047,
      "verks": 4048,
      "Ġforskrift": 4049,
      "hÃ¥nd": 4050,
      "ior": 4051,
      "Ġutvikler": 4052,
      "Ġhundre": 4053,
      "Ġas": 4054,
      "ĠHot": 4055,
      "ba": 4056,
      "tiden": 4057,
      "ĠBruk": 4058,
      "vne": 4059,
      "Ġtanke": 4060,
      "Ġcm": 4061,
      "Ġperfekt": 4062,
      "ĠMart": 4063,
      "Ġtilfred": 4064,
      "Ġrygg": 4065,
      "stedet": 4066,
      "ikler": 4067,
      "ĠkjÃ¸retÃ¸y": 4068,
      "Ġbildene": 4069,
      "Ġflytte": 4070,
      "oo": 4071,
      "departementet": 4072,
      "Ġnordmenn": 4073,
      "Ã¸nnhet": 4074,
      "Opp": 4075,
      "Ã¼": 4076,
      "Ġtrekke": 4077,
      "Ġsukker": 4078,
      "Ġsnakker": 4079,
      "gte": 4080,
      "SB": 4081,
      "Ġskol": 4082,
      "kene": 4083,
      "Ġcialis": 4084,
      "kar": 4085,
      "alle": 4086,
      "ĠJan": 4087,
      "Ġrettigheter": 4088,
      "utning": 4089,
      "Ġressurser": 4090,
      "Ġomtr": 4091,
      "tegi": 4092,
      "kost": 4093,
      "andid": 4094,
      "use": 4095,
      "Ġsaks": 4096,
      "iger": 4097,
      "ĠBu": 4098,
      "Har": 4099,
      "Ġdisp": 4100,
      "Ġerotiske": 4101,
      "Ġungdoms": 4102,
      "Ġpress": 4103,
      "ĠFlere": 4104,
      "agno": 4105,
      "Ġeffektiv": 4106,
      "utstyr": 4107,
      "eth": 4108,
      "Ġgull": 4109,
      "Ġbekym": 4110,
      "Ġimot": 4111,
      "Ġhente": 4112,
      "Ġtilstre": 4113,
      "vei": 4114,
      "Ġmusk": 4115,
      "Ġpasienter": 4116,
      "Ġtrinn": 4117,
      "ĠVil": 4118,
      "arbeidere": 4119,
      "Ġerfaringer": 4120,
      "frik": 4121,
      "Ġfysisk": 4122,
      "Ġuken": 4123,
      "Ġpolitisk": 4124,
      "Ġdrikke": 4125,
      "ls": 4126,
      "Ġutenland": 4127,
      "Ġseier": 4128,
      "Ã¸pet": 4129,
      "Ġ90": 4130,
      "annen": 4131,
      "Ġsommeren": 4132,
      "Ġregjering": 4133,
      "vÃ¦rende": 4134,
      "Ġopply": 4135,
      "letter": 4136,
      "esÃ¸k": 4137,
      "ĠNasjon": 4138,
      "ĠSport": 4139,
      "Ġnormalt": 4140,
      "lager": 4141,
      "Ġoven": 4142,
      "Ġep": 4143,
      "grammet": 4144,
      "Ġinnom": 4145,
      "Ġkjem": 4146,
      "Ġvises": 4147,
      "Ġsek": 4148,
      "folk": 4149,
      "Ġtoppen": 4150,
      "Ġrelativt": 4151,
      "Ġenerg": 4152,
      "out": 4153,
      "etten": 4154,
      "SK": 4155,
      "ID": 4156,
      "ror": 4157,
      "ykket": 4158,
      "Ġvente": 4159,
      "tom": 4160,
      "ĠSm": 4161,
      "atiske": 4162,
      "rings": 4163,
      "Ġstund": 4164,
      "saker": 4165,
      "orn": 4166,
      "Ġlitter": 4167,
      "Ġment": 4168,
      "Ġkjenn": 4169,
      "Ġarbeide": 4170,
      "Ġvarm": 4171,
      "Ġinntekt": 4172,
      "Ġkonkret": 4173,
      "Ġaktuelle": 4174,
      "abri": 4175,
      "Ġbiler": 4176,
      "Ġekstre": 4177,
      "messig": 4178,
      "Ġ<": 4179,
      "UN": 4180,
      "aut": 4181,
      "ines": 4182,
      "ĠJa": 4183,
      "Ġhandling": 4184,
      "histor": 4185,
      "Ġomtrent": 4186,
      "Ã¸ndelag": 4187,
      "ĠlÃ¸sning": 4188,
      "lir": 4189,
      "Ġvind": 4190,
      "Ġselger": 4191,
      "Ġ2005": 4192,
      "Ġabsolutt": 4193,
      "Ġborte": 4194,
      "Ġoppdaget": 4195,
      "Ġsentrale": 4196,
      "Ġgenerelt": 4197,
      "Ġomfattende": 4198,
      "RA": 4199,
      "Ġoppgave": 4200,
      "Ġbeskri": 4201,
      "Ġtilrettel": 4202,
      "Ġendret": 4203,
      "ĠJesus": 4204,
      "rang": 4205,
      "ĠbÃ¥t": 4206,
      "Ġbillig": 4207,
      "Ġgift": 4208,
      "ski": 4209,
      "somme": 4210,
      "dens": 4211,
      "mmelig": 4212,
      "verdig": 4213,
      "Ġarbeidspl": 4214,
      "Ġbeskjed": 4215,
      "Ġstabil": 4216,
      "miljÃ¸": 4217,
      "Ġfilmen": 4218,
      "Ġbist": 4219,
      "tekter": 4220,
      "iler": 4221,
      "ĠBjÃ¸rn": 4222,
      "Ġfremst": 4223,
      "Ġfitte": 4224,
      "ĠUtvalg": 4225,
      "Ġtrenings": 4226,
      "forsk": 4227,
      "selen": 4228,
      "ĠspÃ¸rre": 4229,
      "unne": 4230,
      "Ġforvent": 4231,
      "ĠFrank": 4232,
      "Ġtri": 4233,
      "ĠBolig": 4234,
      "Ġoppmerksom": 4235,
      "Ġslo": 4236,
      "Ġfatt": 4237,
      "Ġfremover": 4238,
      "Ġyrkes": 4239,
      "ish": 4240,
      "ĠPa": 4241,
      "Ġbestemte": 4242,
      "siktig": 4243,
      "Ġanbefaler": 4244,
      "Ġpersonlige": 4245,
      "alisering": 4246,
      "ĠRÃ¥d": 4247,
      "risk": 4248,
      "Ġledelse": 4249,
      "ĠÃ¥pent": 4250,
      "sex": 4251,
      "Ġ31": 4252,
      "ania": 4253,
      "Ġsykkel": 4254,
      "ĠBerg": 4255,
      "kommende": 4256,
      "skog": 4257,
      "Ġinspirasjon": 4258,
      "ep": 4259,
      "IF": 4260,
      "olf": 4261,
      "Ġboken": 4262,
      "ĠDra": 4263,
      "Ġkraftig": 4264,
      "ĠUngdom": 4265,
      "ĠbesÃ¸ke": 4266,
      "ĠResult": 4267,
      "Ġprest": 4268,
      "Ġdann": 4269,
      "ĠFil": 4270,
      "Ġsamle": 4271,
      "Ġseri": 4272,
      "Ġingenting": 4273,
      "Ġsituasjon": 4274,
      "22": 4275,
      "Ġderimot": 4276,
      "standen": 4277,
      "ellet": 4278,
      "bruks": 4279,
      "okrat": 4280,
      "Ġbevisst": 4281,
      "Ġorganisasjoner": 4282,
      "Ġorienter": 4283,
      "ming": 4284,
      "Ġoppt": 4285,
      "son": 4286,
      "Er": 4287,
      "ĠtÃ¥": 4288,
      "astet": 4289,
      "Ġrunde": 4290,
      "ĠFo": 4291,
      "synet": 4292,
      "Ġskatte": 4293,
      "Ġtidspunkt": 4294,
      "40": 4295,
      ".)": 4296,
      "ĠLike": 4297,
      "RE": 4298,
      "Ġfo": 4299,
      "anal": 4300,
      "'s": 4301,
      "ĠTroms": 4302,
      "Ġbegynnelsen": 4303,
      "Ġprinsi": 4304,
      "sken": 4305,
      "edagog": 4306,
      "Ġveiled": 4307,
      "gn": 4308,
      "Sam": 4309,
      "Ġventer": 4310,
      "Ġumiddel": 4311,
      "Ġvannet": 4312,
      "lim": 4313,
      "KK": 4314,
      "Ġkostnad": 4315,
      "sord": 4316,
      "ĠJon": 4317,
      "Ġsesongen": 4318,
      "Ġblo": 4319,
      "Ġutdann": 4320,
      "vs": 4321,
      "Ġprote": 4322,
      "Ġforholdet": 4323,
      "Ġfaglig": 4324,
      "ĠforstÃ¥else": 4325,
      "eler": 4326,
      "Ġoppmerksomhet": 4327,
      "ĠMon": 4328,
      "Ġrul": 4329,
      "hund": 4330,
      "ĠrÃ¸d": 4331,
      "Ġlun": 4332,
      "vend": 4333,
      "Ġeurope": 4334,
      "former": 4335,
      "Ġannonser": 4336,
      "mester": 4337,
      "iti": 4338,
      "ampen": 4339,
      "ellene": 4340,
      "ĠPC": 4341,
      "ĠDato": 4342,
      "Ã¸ya": 4343,
      "Ġverdt": 4344,
      "serte": 4345,
      "grupper": 4346,
      "¿½": 4347,
      "rekk": 4348,
      "Ġsuks": 4349,
      "Ġpasient": 4350,
      "Ġglass": 4351,
      "Ġinteressant": 4352,
      "ï¿½": 4353,
      "iten": 4354,
      "Ġklasse": 4355,
      "Ġbland": 4356,
      "hjelp": 4357,
      "Ġlignende": 4358,
      "kre": 4359,
      "Ġsmer": 4360,
      "Ġintervju": 4361,
      "Ġvinne": 4362,
      "oven": 4363,
      "Ġheldig": 4364,
      "Ġvanligvis": 4365,
      "ĠOrganis": 4366,
      "ĠUniversitet": 4367,
      "Ġrefle": 4368,
      "Ġbidrag": 4369,
      "egn": 4370,
      "ĠGratis": 4371,
      "Ġsitte": 4372,
      "Ġsmak": 4373,
      "Ġfelt": 4374,
      "likter": 4375,
      "riske": 4376,
      "ktoratet": 4377,
      "Ġfeng": 4378,
      "gÃ¥ende": 4379,
      "ex": 4380,
      "Ġent": 4381,
      "ĠvilkÃ¥r": 4382,
      "Ġalvorlig": 4383,
      "ĠTyskland": 4384,
      "Ġfavoritt": 4385,
      ".\"": 4386,
      "Ġviten": 4387,
      "Ġnakne": 4388,
      "ias": 4389,
      "ĠSkole": 4390,
      "Ġrad": 4391,
      "sloven": 4392,
      "ivet": 4393,
      "Ġspesielle": 4394,
      "ialog": 4395,
      "datter": 4396,
      "apt": 4397,
      "Ġansikt": 4398,
      "Ġspilte": 4399,
      "vekst": 4400,
      "Ġtorsdag": 4401,
      "Ġhistorien": 4402,
      "ĠnÃ¸": 4403,
      "resjon": 4404,
      "ick": 4405,
      "ĠMÃ¸t": 4406,
      "ipp": 4407,
      "kob": 4408,
      "sjef": 4409,
      "Ġstemmer": 4410,
      "ĠIN": 4411,
      "Ġdeilig": 4412,
      "ĠAnne": 4413,
      "natt": 4414,
      "Ġthai": 4415,
      "ĠSkog": 4416,
      "Ġdisku": 4417,
      "Ġinformasjonen": 4418,
      "ĠslÃ¥tt": 4419,
      "Ġhelhet": 4420,
      "ĠRussland": 4421,
      "beg": 4422,
      "essige": 4423,
      "Ã¸nster": 4424,
      "ĠlÃ¸se": 4425,
      "Ġ;": 4426,
      "estil": 4427,
      "ĠFÃ¸l": 4428,
      "Ġspesif": 4429,
      "skom": 4430,
      "ĠEk": 4431,
      "blem": 4432,
      "grep": 4433,
      "Ġdebatt": 4434,
      "Ġskjul": 4435,
      "Ġdr": 4436,
      "peri": 4437,
      "Ġgjeldende": 4438,
      "ĠKong": 4439,
      "Ġadministrasjon": 4440,
      "Ġkjempe": 4441,
      "smessig": 4442,
      "sminister": 4443,
      "Ġkat": 4444,
      "ĠDesign": 4445,
      "Ġtilp": 4446,
      "iserer": 4447,
      "Ġradi": 4448,
      "Ġlevere": 4449,
      "ĠHÃ¥nd": 4450,
      "Ġskjedd": 4451,
      "Ã¤": 4452,
      "svis": 4453,
      "Ġtenkt": 4454,
      "21": 4455,
      "Ġfremdeles": 4456,
      "ĠlÃ¸pe": 4457,
      "Ġmenneske": 4458,
      "ika": 4459,
      "Ġvarier": 4460,
      "ĠEg": 4461,
      "ruk": 4462,
      "Ġenor": 4463,
      "ĠTromsÃ¸": 4464,
      "Ġco": 4465,
      "Ġstrateg": 4466,
      "Ġdelen": 4467,
      "ics": 4468,
      "ĠbrÃ¸": 4469,
      "Ġnylig": 4470,
      "Ġminim": 4471,
      "Ġbarnehage": 4472,
      "ĠEx": 4473,
      "Ġgiftet": 4474,
      "borg": 4475,
      "ĠProsjekt": 4476,
      "bane": 4477,
      "Ġsko": 4478,
      "Alle": 4479,
      "ĠGener": 4480,
      "rel": 4481,
      "Ġfug": 4482,
      "bilder": 4483,
      "Ġfir": 4484,
      "Ġskad": 4485,
      "ĠnÃ¦rme": 4486,
      "Ġpresse": 4487,
      "Ġbenytter": 4488,
      "Ã¦rlig": 4489,
      "Ġmuse": 4490,
      "ĠEiendom": 4491,
      "Ġidentif": 4492,
      "mptom": 4493,
      "utdanning": 4494,
      "ettet": 4495,
      "Ġmandag": 4496,
      "dels": 4497,
      "Ġklubben": 4498,
      "iansand": 4499,
      "ors": 4500,
      "Pro": 4501,
      "Ġopps": 4502,
      "Ġ35": 4503,
      "itekt": 4504,
      "Ġfalt": 4505,
      "Ġgleder": 4506,
      "ĠElekt": 4507,
      "etning": 4508,
      "Ġkontin": 4509,
      "Ġsil": 4510,
      "vi": 4511,
      "Ġresp": 4512,
      "its": 4513,
      "gar": 4514,
      "ĠfÃ¸d": 4515,
      "aktivitet": 4516,
      "Ġhjemmes": 4517,
      "Ġspilt": 4518,
      "Ġstiller": 4519,
      "Ġigjennom": 4520,
      "ĠInnhold": 4521,
      "Ġ2000": 4522,
      "Ġretten": 4523,
      "Ġregnskap": 4524,
      "anten": 4525,
      "urdering": 4526,
      "Ġforbedre": 4527,
      "dagen": 4528,
      "Ġplutselig": 4529,
      "Ġvars": 4530,
      "Ġstudent": 4531,
      "Inn": 4532,
      "ĠgrÃ¥": 4533,
      "ĠundersÃ¸": 4534,
      "nÃ¦r": 4535,
      "Ġtj": 4536,
      "Ġmangler": 4537,
      "Ġeien": 4538,
      "jerne": 4539,
      "Ġhentet": 4540,
      "Ġbestille": 4541,
      "budet": 4542,
      "Ġredusert": 4543,
      "ðŁ": 4544,
      "ĠDermed": 4545,
      "Ġpraktisk": 4546,
      "Ġpapir": 4547,
      "adres": 4548,
      "ssp": 4549,
      "OT": 4550,
      "Ã¸ter": 4551,
      "Ġgru": 4552,
      "ĠennÃ¥": 4553,
      "telse": 4554,
      "oft": 4555,
      "Ġtrener": 4556,
      "ĠLille": 4557,
      "Ġdobb": 4558,
      "af": 4559,
      "ense": 4560,
      "ĠhÃ¸rer": 4561,
      "Ġekteskap": 4562,
      "Ġinformasjonskap": 4563,
      "Ġcom": 4564,
      "Ġgave": 4565,
      "Ġtilfeldig": 4566,
      "Ġalko": 4567,
      "Ġrimelig": 4568,
      "ĠMil": 4569,
      "nevnte": 4570,
      "etil": 4571,
      "ĠKristian": 4572,
      "ĠInformasjon": 4573,
      "ben": 4574,
      "Ġprogrammet": 4575,
      "Ġopprettet": 4576,
      "Ġforsknings": 4577,
      "fart": 4578,
      "Ġmaks": 4579,
      "Ġdesig": 4580,
      "60": 4581,
      "Ġoppfordr": 4582,
      "Ġrommet": 4583,
      "Ġomfatter": 4584,
      "struktur": 4585,
      "Om": 4586,
      "ips": 4587,
      "Ġformer": 4588,
      "brudd": 4589,
      "Ġdessverre": 4590,
      "Ġtemperatur": 4591,
      "ĠPerson": 4592,
      "Ã¸kene": 4593,
      "Ġinteressert": 4594,
      "Ġkonser": 4595,
      "rinn": 4596,
      "Ġinnholdet": 4597,
      "Ġboka": 4598,
      "Ġkjenne": 4599,
      "IT": 4600,
      "23": 4601,
      "Ġrevol": 4602,
      "Ġarbeidsgiver": 4603,
      "Ġjournali": 4604,
      "essor": 4605,
      "Ġferie": 4606,
      "Ġtids": 4607,
      "henger": 4608,
      "Ġvon": 4609,
      "Ġtilstrekkelig": 4610,
      "Ġnettsiden": 4611,
      "Ġ)": 4612,
      "Ġnettsider": 4613,
      "ĠOn": 4614,
      "Ġbransje": 4615,
      "ĠFord": 4616,
      "Ġforand": 4617,
      "ĠNil": 4618,
      "produ": 4619,
      "Ġkjend": 4620,
      "Ġfylkes": 4621,
      "unkter": 4622,
      "elef": 4623,
      "Ġglob": 4624,
      "Ġutb": 4625,
      "Ġoverfl": 4626,
      "kkende": 4627,
      "klubb": 4628,
      "gjer": 4629,
      "Ġfjerne": 4630,
      "//": 4631,
      "ĠmÃ¥let": 4632,
      "Ġwww": 4633,
      "Ġskader": 4634,
      "Ġerotikk": 4635,
      "gu": 4636,
      "omrÃ¥de": 4637,
      "stede": 4638,
      "ĠFOR": 4639,
      "rettet": 4640,
      "Ġopplys": 4641,
      "Ġkomfort": 4642,
      "Ã¸mm": 4643,
      "Ġnyte": 4644,
      "Ġfremme": 4645,
      "une": 4646,
      "Ġfunksjoner": 4647,
      "Ġstress": 4648,
      "umet": 4649,
      "Ġjern": 4650,
      "Ġanledning": 4651,
      "ĠvÃ¥ren": 4652,
      "Ġmente": 4653,
      "Ġtann": 4654,
      "Ġbrit": 4655,
      "Ġfantastiske": 4656,
      "Ġnettverk": 4657,
      "Ġnummer": 4658,
      "ĠPolit": 4659,
      "Ġsend": 4660,
      "ĠFredrik": 4661,
      "PS": 4662,
      "ppene": 4663,
      "ordin": 4664,
      "kan": 4665,
      "Ġutdan": 4666,
      "Ġjur": 4667,
      "udsjett": 4668,
      "Ġprisen": 4669,
      "Ġmening": 4670,
      "Ġresultatet": 4671,
      "ĠfÃ¸le": 4672,
      "ĠkjÃ¦rligheten": 4673,
      "Ġeventuelt": 4674,
      "smÃ¸tet": 4675,
      "ĠForen": 4676,
      "Ġnedenfor": 4677,
      "ĠData": 4678,
      "Ġmyndigheter": 4679,
      "assasje": 4680,
      "dÃ¸rs": 4681,
      "Ġtanker": 4682,
      "Ġhvite": 4683,
      "IG": 4684,
      "Ġdigitale": 4685,
      "iering": 4686,
      "Ġfro": 4687,
      "ĠhÃ¥r": 4688,
      "rikke": 4689,
      "ynt": 4690,
      "Ġkra": 4691,
      "Ġvitenskap": 4692,
      "arbeider": 4693,
      "Ġseng": 4694,
      "gjort": 4695,
      "Ġhensikt": 4696,
      "teres": 4697,
      "Ġevne": 4698,
      "Ġutgangspunktet": 4699,
      "ĠIndustri": 4700,
      "Ġstudier": 4701,
      "ĠfÃ¸rte": 4702,
      "Ġir": 4703,
      "taler": 4704,
      "Ġoppe": 4705,
      "Ġplaner": 4706,
      "rÃ¸rende": 4707,
      "Ġkreft": 4708,
      "smiddel": 4709,
      "ĠGoogle": 4710,
      "ura": 4711,
      "ĠstrÃ¸": 4712,
      "ĠgjennomfÃ¸res": 4713,
      "ĠFag": 4714,
      "ĠVidere": 4715,
      "Ġsve": 4716,
      "Ġforeldrene": 4717,
      "ony": 4718,
      "asen": 4719,
      "Ġfang": 4720,
      "Ġfremm": 4721,
      "ĠAnlegg": 4722,
      "Ġne": 4723,
      "Ġsettes": 4724,
      "mo": 4725,
      "Ġpupper": 4726,
      "Ġbefolkningen": 4727,
      "Ġdep": 4728,
      "delen": 4729,
      "olke": 4730,
      "ĠForskning": 4731,
      "Ġ195": 4732,
      "Ġarranger": 4733,
      "ĠBare": 4734,
      "ssjef": 4735,
      "Ġprosessen": 4736,
      "barn": 4737,
      "Ġsendes": 4738,
      "elling": 4739,
      "urte": 4740,
      "klar": 4741,
      "Ġpol": 4742,
      "ĠDess": 4743,
      "isi": 4744,
      "Selv": 4745,
      "ĠDel": 4746,
      "ĠII": 4747,
      "Ġdrive": 4748,
      "arken": 4749,
      "Ġstarten": 4750,
      "Ġ*": 4751,
      "Ġhandle": 4752,
      "Ã¸nt": 4753,
      "ookies": 4754,
      "Ġpolitikk": 4755,
      "Ġdam": 4756,
      "ligheter": 4757,
      "yttelse": 4758,
      "ĠOle": 4759,
      "ĠStortinget": 4760,
      "prosjekt": 4761,
      "dring": 4762,
      "fjell": 4763,
      "ĠApp": 4764,
      "ĠÃ¸kte": 4765,
      "Ġmatch": 4766,
      "ĠamatÃ¸r": 4767,
      "ĠgjennomfÃ¸ring": 4768,
      "mus": 4769,
      "Ġomk": 4770,
      "Ġinnb": 4771,
      "Ã¸pig": 4772,
      "ĠMC": 4773,
      "ĠnÃ¦ring": 4774,
      "Ġtrans": 4775,
      "az": 4776,
      "Ġex": 4777,
      "ĠPh": 4778,
      "oer": 4779,
      "Ġpen": 4780,
      "atemat": 4781,
      "Ġkartlegg": 4782,
      "ĠBok": 4783,
      "Ġstuder": 4784,
      "ommene": 4785,
      "Ġettersom": 4786,
      "ĠspÃ¸rsmÃ¥let": 4787,
      "Ġskyldes": 4788,
      "ĠstÃ¸rrelse": 4789,
      "ĠÃ¸ver": 4790,
      "Ġdagene": 4791,
      "jÃ¸ring": 4792,
      "repren": 4793,
      "skapene": 4794,
      "rael": 4795,
      "ĠSammen": 4796,
      "Ġhard": 4797,
      "Ġautomatisk": 4798,
      "ape": 4799,
      "formen": 4800,
      "Ġgravid": 4801,
      "rapport": 4802,
      "Ġplast": 4803,
      "taket": 4804,
      "Ġtrene": 4805,
      "denafil": 4806,
      "Ġmerk": 4807,
      "ĠvÃ¥pen": 4808,
      "ĠutfÃ¸re": 4809,
      "Ġdialog": 4810,
      "ĠâĢ¦": 4811,
      "Ġrappor": 4812,
      "jet": 4813,
      "imer": 4814,
      "Ġmotiv": 4815,
      "Ġslit": 4816,
      "Ġlei": 4817,
      "lÃ¦ring": 4818,
      "Ġmerket": 4819,
      "felt": 4820,
      "Ġfritt": 4821,
      "Ġsvarte": 4822,
      "Ġflest": 4823,
      "Ġmilliarder": 4824,
      "rede": 4825,
      "veks": 4826,
      "Ġinform": 4827,
      "ĠChristian": 4828,
      "ĠTransport": 4829,
      "Ġdrept": 4830,
      "spÃ¸r": 4831,
      "Ġkna": 4832,
      "Ġsjekk": 4833,
      "ĠtilhÃ¸r": 4834,
      "Ġeksisterende": 4835,
      "edrag": 4836,
      "ĠTru": 4837,
      "Ġbenyttet": 4838,
      "ĠforeslÃ¥": 4839,
      "fisk": 4840,
      "Ġnyd": 4841,
      "Ġbergen": 4842,
      "agelig": 4843,
      "hets": 4844,
      "istisk": 4845,
      "Ġill": 4846,
      "Ġpositive": 4847,
      "Ġinternasjonalt": 4848,
      "Ġfare": 4849,
      "attes": 4850,
      "Ġtekniske": 4851,
      "Ġskatt": 4852,
      "Ġbygger": 4853,
      "Ġaksep": 4854,
      "ĠÃ¥tte": 4855,
      "strÃ¸m": 4856,
      "Ġoverrask": 4857,
      "erledes": 4858,
      "Ġjevn": 4859,
      "Ġfylkeskommun": 4860,
      "Ġskuesp": 4861,
      "Ġsvenske": 4862,
      "09": 4863,
      "Ġsens": 4864,
      "Ġslapp": 4865,
      "gir": 4866,
      "bevis": 4867,
      "onne": 4868,
      "yrer": 4869,
      "Ġetc": 4870,
      "Ġlurt": 4871,
      "Ġdessuten": 4872,
      "risen": 4873,
      "ĠDanmark": 4874,
      "nr": 4875,
      "FÃ¸r": 4876,
      "Ġlandets": 4877,
      "sstil": 4878,
      "Ġkontrakt": 4879,
      "ĠSn": 4880,
      "eden": 4881,
      "alis": 4882,
      "reditt": 4883,
      "bruker": 4884,
      "Ġskoler": 4885,
      "Ġsupp": 4886,
      "Ġforbruker": 4887,
      "ensene": 4888,
      "Ġfaste": 4889,
      "lia": 4890,
      "pene": 4891,
      "Ġband": 4892,
      "Ġuh": 4893,
      "ondon": 4894,
      "Ġmamma": 4895,
      "Ġkvalit": 4896,
      "kalling": 4897,
      "but": 4898,
      "Ġresultatene": 4899,
      "lu": 4900,
      "delsen": 4901,
      "Ġsang": 4902,
      "ka": 4903,
      "ĠrÃ¸r": 4904,
      "orien": 4905,
      "Ġventet": 4906,
      "Ġselskaper": 4907,
      "Ġonsdag": 4908,
      "Ġinnbyggere": 4909,
      "Ġtilpasset": 4910,
      "ningsm": 4911,
      "entral": 4912,
      "ĠTer": 4913,
      "kor": 4914,
      "kap": 4915,
      "ĠrÃ¸y": 4916,
      "Ġspesial": 4917,
      "inder": 4918,
      "Ġerotisk": 4919,
      "ĠÃ¸vrig": 4920,
      "samling": 4921,
      "://": 4922,
      "ĠLog": 4923,
      "-,": 4924,
      "ĠVeg": 4925,
      "Ġforplikt": 4926,
      "Ġsektor": 4927,
      "elefoner": 4928,
      "Ġumu": 4929,
      "opplysninger": 4930,
      "âĢĿ.": 4931,
      "lass": 4932,
      "Fra": 4933,
      "fulle": 4934,
      "rest": 4935,
      "Ġlover": 4936,
      "Ġkategorier": 4937,
      "Ġvent": 4938,
      "Ġendte": 4939,
      "Ġutslipp": 4940,
      "Ġsamsvar": 4941,
      "kere": 4942,
      "ĠInstit": 4943,
      "iteen": 4944,
      "Ġverdier": 4945,
      "Ġleverer": 4946,
      "Ġposisjon": 4947,
      "osisjon": 4948,
      "Ġklin": 4949,
      "Ġbytte": 4950,
      "ood": 4951,
      "Ġspe": 4952,
      "Ġsats": 4953,
      "Ġvirksomheten": 4954,
      "weg": 4955,
      "ĠMot": 4956,
      "Ġdriv": 4957,
      "akte": 4958,
      "sberg": 4959,
      "ica": 4960,
      "Ġsender": 4961,
      "nede": 4962,
      "Ġvindu": 4963,
      "ĠBÃ¥de": 4964,
      "tÃ¸y": 4965,
      "ekan": 4966,
      "iel": 4967,
      "akten": 4968,
      "ĠTelefon": 4969,
      "undet": 4970,
      "ĠOlav": 4971,
      "Ġoppbe": 4972,
      "Ġlaste": 4973,
      "Ġsuksess": 4974,
      "ada": 4975,
      "inene": 4976,
      "Ġutlandet": 4977,
      "ĠPeter": 4978,
      "01": 4979,
      "Ġz": 4980,
      "Ã¸lv": 4981,
      "Ġintro": 4982,
      "haug": 4983,
      "inar": 4984,
      "Ġbus": 4985,
      "tra": 4986,
      "stav": 4987,
      "Ġprosess": 4988,
      "Ġvesentlig": 4989,
      "Ġdikt": 4990,
      "ĠbÃ¦rekraft": 4991,
      "âĢ¦]": 4992,
      "aksjoner": 4993,
      "Ġtegn": 4994,
      "ction": 4995,
      "grader": 4996,
      "Hva": 4997,
      "ĠTre": 4998,
      "ĠÃĺy": 4999,
      "ĠAkershus": 5000,
      "oper": 5001,
      "Ġgjent": 5002,
      "Ġtider": 5003,
      "por": 5004,
      "ĠPo": 5005,
      "kommun": 5006,
      "lÃ¸": 5007,
      "Ġbrev": 5008,
      "Ġsituasjoner": 5009,
      "ringen": 5010,
      "ĠErik": 5011,
      "Ġordin": 5012,
      "yk": 5013,
      "Ġryd": 5014,
      "Ġkonsent": 5015,
      "amask": 5016,
      "etak": 5017,
      "ĠJu": 5018,
      "Ġferd": 5019,
      "Ã¸rr": 5020,
      "Ġannerledes": 5021,
      "ĠstrÃ¥": 5022,
      "ialt": 5023,
      "Ġbruken": 5024,
      "forening": 5025,
      "apo": 5026,
      "Ġlitteratur": 5027,
      "ĠÃ¸kning": 5028,
      "Ġforen": 5029,
      "virkning": 5030,
      "esel": 5031,
      "ometer": 5032,
      "Ġtyske": 5033,
      "Ġ500": 5034,
      "Ġtilskudd": 5035,
      "ĠVG": 5036,
      "Ġsal": 5037,
      "drer": 5038,
      "Ġkrigen": 5039,
      "Ġserver": 5040,
      "verdi": 5041,
      "Ġforbud": 5042,
      "ĠkjÃ¸rte": 5043,
      "ĠaktÃ¸rer": 5044,
      "ĠÃ¥pning": 5045,
      "Ġeksempler": 5046,
      "Ġkunstner": 5047,
      "Ġgjest": 5048,
      "opplev": 5049,
      "Ġmiddag": 5050,
      "Ġxxx": 5051,
      "satte": 5052,
      "ĠLars": 5053,
      "Ġrapport": 5054,
      "Ġtog": 5055,
      "ĠUtdanning": 5056,
      "ĠsÃ¥r": 5057,
      "verd": 5058,
      "Ġsystemet": 5059,
      "Ġpengene": 5060,
      "lemmene": 5061,
      "ĠMic": 5062,
      "Ġklima": 5063,
      "Ġinstru": 5064,
      "05": 5065,
      "Ġpoliti": 5066,
      "Ġveier": 5067,
      "Ġundervisning": 5068,
      "Ġopplevelser": 5069,
      "Ġkristne": 5070,
      "Ġdeltok": 5071,
      "ĠAm": 5072,
      "ĠStatens": 5073,
      "ĠLar": 5074,
      "Ġmm": 5075,
      "Ġdiagno": 5076,
      "ĠReis": 5077,
      "ibliotek": 5078,
      "ai": 5079,
      "engt": 5080,
      "Ġaktive": 5081,
      "ĠUten": 5082,
      "okk": 5083,
      "Ġerst": 5084,
      "Ġkol": 5085,
      "ĠLu": 5086,
      "illa": 5087,
      "Ġdetaljer": 5088,
      "Ġretningslinjer": 5089,
      "alist": 5090,
      "atert": 5091,
      "ĠNorway": 5092,
      "smarked": 5093,
      "ĠkjÃ¸pte": 5094,
      "ĠSvein": 5095,
      "Ġfrukt": 5096,
      "Ġasi": 5097,
      "Ġalkohol": 5098,
      "Ġtrolig": 5099,
      "sse": 5100,
      "Ġhjert": 5101,
      "Ġbegrenset": 5102,
      "ose": 5103,
      "ĠÃ¥rlig": 5104,
      "meldinger": 5105,
      "isten": 5106,
      "boks": 5107,
      "ĠMÃ¥l": 5108,
      "amb": 5109,
      "ĠFort": 5110,
      "Ġlive": 5111,
      "skjema": 5112,
      "yser": 5113,
      "ace": 5114,
      ",-": 5115,
      "habil": 5116,
      "revisjon": 5117,
      "ĠHver": 5118,
      "ĠfÃ¸rt": 5119,
      "mask": 5120,
      "Ġmateriale": 5121,
      "Ġomgang": 5122,
      "Ġuttry": 5123,
      "Ġhelgen": 5124,
      "liste": 5125,
      "Ġforelig": 5126,
      "oter": 5127,
      "Ġforven": 5128,
      "ĠSa": 5129,
      "Ġnyheter": 5130,
      "Ġangrep": 5131,
      "ĠÃ¸vrige": 5132,
      "Ġkalles": 5133,
      "amm": 5134,
      "Ġ2004": 5135,
      "ĠundersÃ¸kelser": 5136,
      "ifte": 5137,
      "enen": 5138,
      "Ġbank": 5139,
      "Ġsjelden": 5140,
      "grad": 5141,
      "Ġtirsdag": 5142,
      "Ġaktivt": 5143,
      "ĠBio": 5144,
      "Ġrekr": 5145,
      "tur": 5146,
      "ĠEv": 5147,
      "Ġspis": 5148,
      "otball": 5149,
      "igheten": 5150,
      "Ġstr": 5151,
      "Ġbatter": 5152,
      "ĠundersÃ¸kelsen": 5153,
      "sens": 5154,
      "inde": 5155,
      "Ġskip": 5156,
      "ulere": 5157,
      "ĠRiks": 5158,
      "ĠinnkjÃ¸p": 5159,
      "Ġlest": 5160,
      "smÃ¥": 5161,
      "Ġunntak": 5162,
      "Ġmottatt": 5163,
      "Ġforbered": 5164,
      "Ġsti": 5165,
      "Ġufor": 5166,
      "Ġgruppen": 5167,
      "Ġstatus": 5168,
      "Ġbeskriv": 5169,
      "ĠWil": 5170,
      "Ġsynlig": 5171,
      "ĠFylkes": 5172,
      "Ġledere": 5173,
      "stin": 5174,
      "Ġmotstand": 5175,
      "ĠBarne": 5176,
      "istiske": 5177,
      "06": 5178,
      "Ġsymptom": 5179,
      "ld": 5180,
      "als": 5181,
      "Av": 5182,
      "ĠstÃ¸tter": 5183,
      "Ġunderstre": 5184,
      "Ġdokumentasjon": 5185,
      "Ġforskjellig": 5186,
      "Ġvennskap": 5187,
      "Hei": 5188,
      "sels": 5189,
      "ĠNavn": 5190,
      "deler": 5191,
      "Ġplu": 5192,
      "Ġ>": 5193,
      "ĠmÃ¸tt": 5194,
      "NU": 5195,
      "Ġbehandlet": 5196,
      "skjer": 5197,
      "28": 5198,
      "igin": 5199,
      "dringer": 5200,
      "ĠBod": 5201,
      "Ġpositivt": 5202,
      "lex": 5203,
      "ĠoppstÃ¥r": 5204,
      "port": 5205,
      "Ġtenkte": 5206,
      "ĠSkal": 5207,
      "Ġsolid": 5208,
      "uter": 5209,
      "antene": 5210,
      "Ġpsykisk": 5211,
      "Ġho": 5212,
      "Ġforek": 5213,
      "fÃ¸ringen": 5214,
      "Ġsiv": 5215,
      "ĠFar": 5216,
      "Ġraskere": 5217,
      "Ġartikkelen": 5218,
      "Ġkop": 5219,
      "Ġrekl": 5220,
      "Ġstemme": 5221,
      "navn": 5222,
      "ĠRog": 5223,
      "Ġferdigheter": 5224,
      "ĠÃĺkonomi": 5225,
      "ĠnÃ¸dvendige": 5226,
      "Ġfrykt": 5227,
      "Ã¸mme": 5228,
      "ĠforsÃ¸ker": 5229,
      "Ġundervis": 5230,
      "wegian": 5231,
      "Ġlykkes": 5232,
      "vn": 5233,
      "ĠðŁ": 5234,
      "Ġsikt": 5235,
      "onen": 5236,
      "ksib": 5237,
      "spiller": 5238,
      "Ġsnakket": 5239,
      "vest": 5240,
      "Ġselge": 5241,
      "LE": 5242,
      "27": 5243,
      "slige": 5244,
      "Ġport": 5245,
      "Ġpresident": 5246,
      "onse": 5247,
      "Ġfullstendig": 5248,
      "han": 5249,
      "kjenn": 5250,
      "Ġtilfelle": 5251,
      "Ġkvart": 5252,
      "Ġstruktur": 5253,
      "Ġbegynt": 5254,
      "we": 5255,
      "ĠEd": 5256,
      "ĠhÃ¥ret": 5257,
      "Ġtitt": 5258,
      "pan": 5259,
      "Ġkul": 5260,
      "ĠMÃ¥": 5261,
      "Ġrettet": 5262,
      "ĠArk": 5263,
      "Se": 5264,
      "hjem": 5265,
      "Ġdyre": 5266,
      "ĠNyheter": 5267,
      "Ġnyttig": 5268,
      "Ġplanlagt": 5269,
      "Ġbad": 5270,
      "ua": 5271,
      "eleder": 5272,
      "lov": 5273,
      "slig": 5274,
      "Ġmotiver": 5275,
      "ĠBÃ¥t": 5276,
      "ĠfÃ¸lelser": 5277,
      "Ġenhet": 5278,
      "Ġinternasjonal": 5279,
      "ketÃ¸y": 5280,
      "Ġbos": 5281,
      "ĠPost": 5282,
      "ĠKontakt": 5283,
      "avgift": 5284,
      "somrÃ¥": 5285,
      "Ġkamper": 5286,
      "Tr": 5287,
      "mÃ¥let": 5288,
      "Ġplassert": 5289,
      "Ġfavoritter": 5290,
      "Ġnytte": 5291,
      "Ġrelevant": 5292,
      "sg": 5293,
      "film": 5294,
      "03": 5295,
      "omas": 5296,
      "Ġteknisk": 5297,
      "Ġengasje": 5298,
      "ĠPorno": 5299,
      "Ġleke": 5300,
      "Ġfolket": 5301,
      "ĠFormann": 5302,
      "Ġjentene": 5303,
      "Ġnaturen": 5304,
      "Ġlevert": 5305,
      "ĠÃ¸ynene": 5306,
      "Ġvekk": 5307,
      "Ġnei": 5308,
      "Ġrespekt": 5309,
      "Ġutsikt": 5310,
      "vekt": 5311,
      "Ġtrygt": 5312,
      "Ġumiddelbart": 5313,
      "able": 5314,
      "ĠnÃ¦rmeste": 5315,
      "bur": 5316,
      "lett": 5317,
      "Ġstrand": 5318,
      "Ġumulig": 5319,
      "organ": 5320,
      "Ġverk": 5321,
      "ĠBruker": 5322,
      "ĠHaug": 5323,
      "lie": 5324,
      "Ġfrisk": 5325,
      "Ġopplevd": 5326,
      "Ġmistet": 5327,
      "leser": 5328,
      "ĠÐ": 5329,
      "Ġslekt": 5330,
      "litt": 5331,
      "Ġandel": 5332,
      "Ġstein": 5333,
      "Ġrelasjoner": 5334,
      "ius": 5335,
      "hemm": 5336,
      "Ġmill": 5337,
      "ĠnÃ¸ye": 5338,
      "ĠomrÃ¥dene": 5339,
      "Ġtradisjonelle": 5340,
      "hel": 5341,
      "ĠlÃ¸y": 5342,
      "Ġ45": 5343,
      "Ġhuske": 5344,
      "arn": 5345,
      "Ġmangel": 5346,
      "Ġtrodde": 5347,
      "Ġindust": 5348,
      "amen": 5349,
      "bÃ¸ker": 5350,
      "eier": 5351,
      "ygge": 5352,
      "lege": 5353,
      "stilt": 5354,
      "Ġavsluttet": 5355,
      "kontroll": 5356,
      "ĠRed": 5357,
      "sbe": 5358,
      "Mange": 5359,
      "ĠFiske": 5360,
      "ĠGuds": 5361,
      "aluering": 5362,
      "Ġvell": 5363,
      "Ġinformasjonskapsler": 5364,
      "Ġsty": 5365,
      "ialet": 5366,
      "Ã¥ringen": 5367,
      "Ġlogg": 5368,
      "ĠJobb": 5369,
      "ĠBjÃ¸r": 5370,
      "45": 5371,
      "SE": 5372,
      "Ġfremtiden": 5373,
      "Ġledende": 5374,
      "Ġ[âĢ¦]": 5375,
      "Ġmilf": 5376,
      "helse": 5377,
      "ĠEli": 5378,
      "ida": 5379,
      "Ġvurdert": 5380,
      "havn": 5381,
      "ffet": 5382,
      "Ġinkluderer": 5383,
      "AM": 5384,
      "ira": 5385,
      "Ġdemon": 5386,
      "Ġansvaret": 5387,
      "ĠIdrett": 5388,
      "rafikk": 5389,
      "Ġprim": 5390,
      "ĠÃ¸yeblikk": 5391,
      "Ġhelg": 5392,
      "Ġovenfor": 5393,
      "Ġbyer": 5394,
      "Ġstede": 5395,
      ".,": 5396,
      "egr": 5397,
      "ĠAll": 5398,
      "Ġengas": 5399,
      "behov": 5400,
      "gavene": 5401,
      "ĠhÃ¸rt": 5402,
      "Ġledet": 5403,
      "amin": 5404,
      "Ġekster": 5405,
      "ilitet": 5406,
      "Ġstod": 5407,
      "Ġflykt": 5408,
      "virksomhet": 5409,
      "side": 5410,
      "Ġproblemet": 5411,
      "Ġkompet": 5412,
      "prosjektet": 5413,
      "valt": 5414,
      "Ġmarker": 5415,
      "Ġbetaling": 5416,
      "Ġreng": 5417,
      "Ġnot": 5418,
      "undersÃ¸kelse": 5419,
      "feltet": 5420,
      "vic": 5421,
      "ĠBra": 5422,
      "Ġmelde": 5423,
      "inke": 5424,
      "ĠTem": 5425,
      "29": 5426,
      "Ġsolgt": 5427,
      "ĠtÃ¸ff": 5428,
      "ĠLondon": 5429,
      "slam": 5430,
      "asi": 5431,
      "ligheten": 5432,
      "spolit": 5433,
      "ĠHand": 5434,
      "Ġring": 5435,
      "fre": 5436,
      "Ġforuts": 5437,
      "Ġpresent": 5438,
      "ĠsÃ¥kalte": 5439,
      "banen": 5440,
      "rets": 5441,
      "Ġke": 5442,
      "Ġlek": 5443,
      "ĠlÃ¦rere": 5444,
      "Ġinteresser": 5445,
      "oritet": 5446,
      "zz": 5447,
      "Ġsub": 5448,
      "ĠSak": 5449,
      "Ġforsiktig": 5450,
      "Ġkommentar": 5451,
      "ĠMidt": 5452,
      "Ġpil": 5453,
      "ministrasjon": 5454,
      "Ã¥rd": 5455,
      "Ġkonst": 5456,
      "vesen": 5457,
      "Ġforklar": 5458,
      "legget": 5459,
      "Ġkamera": 5460,
      "Ġfarlig": 5461,
      "alj": 5462,
      "imensjon": 5463,
      "ĠEngland": 5464,
      "Ġinvest": 5465,
      "Ġstaten": 5466,
      "vokat": 5467,
      "ffer": 5468,
      "ĠNoe": 5469,
      "ĠTot": 5470,
      "Ġfortalte": 5471,
      "skil": 5472,
      "ause": 5473,
      "Ġegg": 5474,
      "ĠOrd": 5475,
      "Ġindre": 5476,
      "Noen": 5477,
      "Ġ09": 5478,
      "skrifter": 5479,
      "Ġgav": 5480,
      "ĠBet": 5481,
      "Ġorigin": 5482,
      "Ġhverdagen": 5483,
      "Ġpositiv": 5484,
      "produs": 5485,
      "Ġinntrykk": 5486,
      "Ġleie": 5487,
      "ĠpÃ¥virke": 5488,
      "ĠLo": 5489,
      "Ġforsker": 5490,
      "26": 5491,
      "Ġselvstendig": 5492,
      "Ã¥s": 5493,
      "Ġfaller": 5494,
      "Ġminste": 5495,
      "Ġslipper": 5496,
      "PP": 5497,
      "ĠforstÃ¥r": 5498,
      "Ġtilt": 5499,
      "ĠNÃ¸d": 5500,
      "Ġunivers": 5501,
      "adem": 5502,
      "Ġomkring": 5503,
      "Ġtrekk": 5504,
      "Ġdokumen": 5505,
      "fatter": 5506,
      "ĠSen": 5507,
      "lÃ¸se": 5508,
      "Ġtjenesten": 5509,
      "ĠLang": 5510,
      "Ġdekke": 5511,
      "Ġrent": 5512,
      "ĠStyret": 5513,
      "Ġhuden": 5514,
      "Ġopprinnelig": 5515,
      "ival": 5516,
      "ĠKristiansand": 5517,
      "Ġkapasitet": 5518,
      "Ġsjef": 5519,
      "Ġetablere": 5520,
      "Ġhevder": 5521,
      "ĠovervÃ¥": 5522,
      "ĠtilnÃ¦r": 5523,
      "Ġinte": 5524,
      "Ġkryss": 5525,
      "ype": 5526,
      "rab": 5527,
      "Ġmangfold": 5528,
      "Ġtal": 5529,
      "ĠFN": 5530,
      "ĠbesÃ¸kende": 5531,
      "ĠOG": 5532,
      "Ġegnet": 5533,
      "ĠHus": 5534,
      "ĠBlant": 5535,
      "Ġinstitusjon": 5536,
      "Ġminne": 5537,
      "Ġbarnehagen": 5538,
      "ĠTel": 5539,
      "ĠArt": 5540,
      "ĠFÃ¸rst": 5541,
      "2015": 5542,
      "skrig": 5543,
      "Ġbehovet": 5544,
      "Ġkristen": 5545,
      "Ġprodusert": 5546,
      "skrivelse": 5547,
      "Under": 5548,
      "Dag": 5549,
      "sson": 5550,
      "Ġpreget": 5551,
      "Ġgrun": 5552,
      "aner": 5553,
      "Ġegenskaper": 5554,
      "ĠÃ¸kende": 5555,
      "yrk": 5556,
      "Ġgass": 5557,
      "har": 5558,
      "Ġspr": 5559,
      "Ġtide": 5560,
      "Ġqu": 5561,
      "Ã¸vere": 5562,
      "Ġhimm": 5563,
      "Ġbro": 5564,
      "Ġunderveis": 5565,
      "SS": 5566,
      "oller": 5567,
      "ton": 5568,
      "Ġnettbutikk": 5569,
      "ĠNM": 5570,
      "Ġligge": 5571,
      "Ġsand": 5572,
      "Ġkorre": 5573,
      "Ġbab": 5574,
      "Ġattrakt": 5575,
      "Ġbredt": 5576,
      "minn": 5577,
      "olde": 5578,
      "Ġinstall": 5579,
      "Ġsur": 5580,
      "Ġavtalen": 5581,
      "fun": 5582,
      "Ġkonstru": 5583,
      "Ġansatt": 5584,
      "edskap": 5585,
      "Ġskriftlig": 5586,
      "Ġettermid": 5587,
      "Ġbegrens": 5588,
      "Re": 5589,
      "Ġredd": 5590,
      "ĠKir": 5591,
      "ĠUniversitetet": 5592,
      "ube": 5593,
      "ĠMag": 5594,
      "lagte": 5595,
      "alske": 5596,
      "Ġ:-)": 5597,
      "Ġtank": 5598,
      "Ġavdeling": 5599,
      "ĠForsikring": 5600,
      "ĠNÃ¦ring": 5601,
      "Ġkommunest": 5602,
      "35": 5603,
      "Ġfylle": 5604,
      "Ġforvaltning": 5605,
      "Ġbutikker": 5606,
      "rus": 5607,
      "ĠlÃ¥n": 5608,
      "setninger": 5609,
      "Ġetterhvert": 5610,
      "PR": 5611,
      "ander": 5612,
      "Ġopptil": 5613,
      "Ġeventuelle": 5614,
      "Ġkne": 5615,
      "Ġmelding": 5616,
      "Ġpapp": 5617,
      "ĠdÃ¸r": 5618,
      "Ġdatamask": 5619,
      "ĠfÃ¦r": 5620,
      "Ġreligion": 5621,
      "Ġrik": 5622,
      "Ġskul": 5623,
      "setting": 5624,
      "ĠpÃ¥virker": 5625,
      "Ġyou": 5626,
      "bÃ¦r": 5627,
      "terier": 5628,
      "Ġsvare": 5629,
      "Ġveiledning": 5630,
      "Ġenheter": 5631,
      "ĠEngros": 5632,
      "ĠElektron": 5633,
      "Ġspesiell": 5634,
      "Ġdiv": 5635,
      "Ġrapporten": 5636,
      "Ġadres": 5637,
      "Ġkandid": 5638,
      "spor": 5639,
      "alsk": 5640,
      "Ġgjer": 5641,
      "ĠVM": 5642,
      "Ġliste": 5643,
      "Ġutarbeidet": 5644,
      "Ġ2003": 5645,
      "Ġvalget": 5646,
      "Ġlot": 5647,
      "Ġinnspill": 5648,
      "Ġspare": 5649,
      "Ġnyhet": 5650,
      "Ã¸ye": 5651,
      "Ġ300": 5652,
      "ĠetterpÃ¥": 5653,
      "ĠGre": 5654,
      "ĠHau": 5655,
      "su": 5656,
      "Ġhistorier": 5657,
      "Ġorg": 5658,
      "Ã¸de": 5659,
      "nem": 5660,
      "ologien": 5661,
      "Ġhotellet": 5662,
      "ĠMartin": 5663,
      "Ġleil": 5664,
      "ĠmÃ¥le": 5665,
      "AG": 5666,
      "vem": 5667,
      "Ġbeskrevet": 5668,
      "Ġfleksib": 5669,
      "Ġretur": 5670,
      "ĠRob": 5671,
      "iter": 5672,
      "ĠSÃ¸ker": 5673,
      "sled": 5674,
      "Ġsvensk": 5675,
      "ĠBre": 5676,
      "skol": 5677,
      "ĠoppgjÃ¸r": 5678,
      "bruket": 5679,
      "stall": 5680,
      "oppgaver": 5681,
      "ara": 5682,
      "edre": 5683,
      "Ġboks": 5684,
      "Ġenige": 5685,
      "Ġlisten": 5686,
      "elighet": 5687,
      "ĠkjÃ¸pes": 5688,
      "rud": 5689,
      "Ġinnovasjon": 5690,
      "Ġsammens": 5691,
      "ĠDeretter": 5692,
      "ĠkjÃ¸rt": 5693,
      "ĠMedisin": 5694,
      "Ġopprettholde": 5695,
      "Ġkontor": 5696,
      "yer": 5697,
      "Ġomgiv": 5698,
      "own": 5699,
      "Ġreseptfritt": 5700,
      "ĠÃĺvrige": 5701,
      "etting": 5702,
      "Ġvedkommende": 5703,
      "kurran": 5704,
      "Ġtillatelse": 5705,
      "Ġdemokrat": 5706,
      "ĠOb": 5707,
      "Ġviss": 5708,
      "Ġoppstart": 5709,
      "Ġpublisert": 5710,
      "lisert": 5711,
      "Ġturer": 5712,
      "Ġillust": 5713,
      "ĠNAV": 5714,
      "ĠKjem": 5715,
      "edato": 5716,
      "user": 5717,
      "irektoratet": 5718,
      "Ġintens": 5719,
      "Ġcasino": 5720,
      "ĠSpesi": 5721,
      "Ġkombinasjon": 5722,
      "Ã¥rs": 5723,
      "ĠHjem": 5724,
      "Ġstem": 5725,
      "Ġdokumenter": 5726,
      "Ġhtt": 5727,
      "Ġnaturlige": 5728,
      "ĠAnders": 5729,
      "Ġeuropeiske": 5730,
      "Ġslet": 5731,
      "Ġsamfunns": 5732,
      "ĠdirektÃ¸r": 5733,
      "rende": 5734,
      "Ġomt": 5735,
      "Ġsamarbeidet": 5736,
      "Ġramme": 5737,
      "ĠAust": 5738,
      "Ġfungere": 5739,
      "Ġhjemmel": 5740,
      "Ġmiddel": 5741,
      "Ġlokalt": 5742,
      "Ġkrimin": 5743,
      "ĠnÃ¦rmest": 5744,
      "ĠMe": 5745,
      "Ġskyld": 5746,
      "Ġfrist": 5747,
      "Ġple": 5748,
      "Ġpasse": 5749,
      "Ġsterkere": 5750,
      "sle": 5751,
      "ĠHÃ¸g": 5752,
      "Ġsold": 5753,
      "Ġtrekker": 5754,
      "ikro": 5755,
      "byen": 5756,
      "ĠstÃ¸y": 5757,
      "Ġhindre": 5758,
      "ĠST": 5759,
      "ialer": 5760,
      ".-": 5761,
      "Ġnav": 5762,
      "Ġgrader": 5763,
      "ĠOlsen": 5764,
      "Ġsamling": 5765,
      "holdet": 5766,
      "minister": 5767,
      "Ġarkitekt": 5768,
      "idrett": 5769,
      "Ġutbet": 5770,
      "Ġhendelser": 5771,
      "80": 5772,
      "ĠForsvar": 5773,
      "dyr": 5774,
      "sko": 5775,
      "Ġhode": 5776,
      "vernet": 5777,
      "Ġloven": 5778,
      "ĠSi": 5779,
      "Ġkarri": 5780,
      "ĠHÃ¸yre": 5781,
      "Ġtim": 5782,
      "urtig": 5783,
      "lÃ¸pet": 5784,
      "Ġforbi": 5785,
      "Ġpus": 5786,
      "ulering": 5787,
      "Ã´": 5788,
      "ĠMus": 5789,
      "ĠGro": 5790,
      "ĠFritid": 5791,
      "anke": 5792,
      "Ġstim": 5793,
      "ĠEm": 5794,
      "Ġspre": 5795,
      "Ġbakken": 5796,
      "Ġutel": 5797,
      "ĠKlÃ¦r": 5798,
      "Ġressurs": 5799,
      "Ġmelder": 5800,
      "Ġsov": 5801,
      "Ġmatemat": 5802,
      "entur": 5803,
      "ĠSpÃ¸r": 5804,
      "idig": 5805,
      "Ġtotal": 5806,
      "Ġtyp": 5807,
      "Ġkaller": 5808,
      "Ġmodell": 5809,
      "Ġsikrer": 5810,
      "Ġiniti": 5811,
      "ĠutfÃ¸res": 5812,
      "verktÃ¸y": 5813,
      "brit": 5814,
      "sjonen": 5815,
      "vensjon": 5816,
      "ĠPart": 5817,
      "Ġvisste": 5818,
      "VÃ¥r": 5819,
      "ĠLeg": 5820,
      "Ġterror": 5821,
      "dret": 5822,
      "Ġbyr": 5823,
      "frika": 5824,
      "liggende": 5825,
      "ĠGrunn": 5826,
      "Ġdatingsider": 5827,
      "Ġsentralt": 5828,
      "ativer": 5829,
      "Ġlanser": 5830,
      "ĠMor": 5831,
      "gjÃ¸ring": 5832,
      "aser": 5833,
      "ĠDN": 5834,
      "ita": 5835,
      "Ġdelvis": 5836,
      "Ġparkering": 5837,
      "Kj": 5838,
      "Ġklokken": 5839,
      "aksjonen": 5840,
      "Ġrevisjon": 5841,
      "ĠslÃ¥r": 5842,
      "Ġmoro": 5843,
      "Ġkreves": 5844,
      "Ġner": 5845,
      "ront": 5846,
      "Ġtypen": 5847,
      "lÃ¸sning": 5848,
      "Ġtvers": 5849,
      "Ġgjens": 5850,
      "jÃ¸en": 5851,
      "Ġhvilket": 5852,
      "Ġorganisasjonen": 5853,
      "ĠKina": 5854,
      "Ġmidten": 5855,
      "Ġ1000": 5856,
      "ĠFrankrike": 5857,
      "Ġfritid": 5858,
      "posten": 5859,
      "Ġflert": 5860,
      "ĠJenter": 5861,
      "Ġlands": 5862,
      "Der": 5863,
      "Ġpresentere": 5864,
      "basert": 5865,
      "Ġbodde": 5866,
      "jern": 5867,
      "Ġgenerisk": 5868,
      "Ġkreve": 5869,
      "ĠInteriÃ¸r": 5870,
      "Ġmaksim": 5871,
      "ikre": 5872,
      "Ġavfall": 5873,
      "ĠKunnskap": 5874,
      "Ġkontaktannonser": 5875,
      "kobling": 5876,
      "Ġinnh": 5877,
      "ĠforelÃ¸pig": 5878,
      "Ġrapporter": 5879,
      "hev": 5880,
      "Ġsykdommer": 5881,
      "ĠPeder": 5882,
      "Ġgrunner": 5883,
      "KS": 5884,
      "Ġjenta": 5885,
      "illet": 5886,
      "ubber": 5887,
      "04": 5888,
      "El": 5889,
      "sleder": 5890,
      "Ġrepar": 5891,
      "Ġmedarbeidere": 5892,
      "Ġbrukerne": 5893,
      "ĠMedier": 5894,
      "Ġgaran": 5895,
      "ĠStore": 5896,
      "Ġplatt": 5897,
      "ĠmÃ¸tes": 5898,
      "Ġfamili": 5899,
      "Ġmanglende": 5900,
      "ammer": 5901,
      "feranse": 5902,
      "Ġneder": 5903,
      "Ġkreditt": 5904,
      "ĠDrikke": 5905,
      "ĠBakgrunn": 5906,
      "Ġplanlegging": 5907,
      "abler": 5908,
      "Ġrike": 5909,
      "ĠÃ¸l": 5910,
      "Ġutgitt": 5911,
      "ĠFarm": 5912,
      "Ġvert": 5913,
      "ĠPetter": 5914,
      "Ġunike": 5915,
      "Ġmetoder": 5916,
      "sreg": 5917,
      "2017": 5918,
      "Ã¥n": 5919,
      "ĠFro": 5920,
      "Ġanalyse": 5921,
      "Ġminner": 5922,
      "Ġforny": 5923,
      "vde": 5924,
      "istrer": 5925,
      "Ġmulige": 5926,
      "filmer": 5927,
      "Ġvirksomheter": 5928,
      "ĠBest": 5929,
      "program": 5930,
      "Ġsannsynligvis": 5931,
      "ĠEngroshandel": 5932,
      "hen": 5933,
      "Ġdekker": 5934,
      "ĠLitt": 5935,
      "Ġartikler": 5936,
      "Ġblomster": 5937,
      "Ġkommunens": 5938,
      "asÃ¸yt": 5939,
      "avtale": 5940,
      "Ġforventet": 5941,
      "Ġ..": 5942,
      "Ġeld": 5943,
      "ĠDagbladet": 5944,
      "ĠLogistikk": 5945,
      "Ġkorte": 5946,
      "Ġni": 5947,
      "Ġkonsekvenser": 5948,
      "Ġopptak": 5949,
      "alb": 5950,
      "ĠCan": 5951,
      "Ġplanen": 5952,
      "ĠKr": 5953,
      "Ġmedia": 5954,
      "poeng": 5955,
      "ĠSl": 5956,
      "Ġforedrag": 5957,
      "Ġtilgjengelige": 5958,
      "Ġsalt": 5959,
      "Ġglem": 5960,
      "Ġbutikken": 5961,
      "Ġhor": 5962,
      "ĠlÃ¸per": 5963,
      "iluft": 5964,
      "arp": 5965,
      "yldig": 5966,
      "Ġjap": 5967,
      "Ġkundene": 5968,
      "Hun": 5969,
      "Ġlegen": 5970,
      "Ġcookies": 5971,
      "ĠLandbruk": 5972,
      "ĠYork": 5973,
      "ĠReiseliv": 5974,
      "02": 5975,
      "08": 5976,
      "Ġ36": 5977,
      "ĠVÃ¥re": 5978,
      "blemer": 5979,
      "Ġmotta": 5980,
      "ĠMens": 5981,
      "ions": 5982,
      "Ġengasjement": 5983,
      "yper": 5984,
      "kjÃ¸ring": 5985,
      "ktiv": 5986,
      "Ġleg": 5987,
      "kkelen": 5988,
      "ogra": 5989,
      "ĠhÃ¥p": 5990,
      "ĠVÃ¦r": 5991,
      "Dersom": 5992,
      "anken": 5993,
      "ĠhÃ¥ndtere": 5994,
      "klokke": 5995,
      "ĠforsÃ¸ke": 5996,
      "ĠskjÃ¸nner": 5997,
      "2016": 5998,
      "samfunn": 5999,
      "ĠKnut": 6000,
      "Ġvinteren": 6001,
      "ĠLikevel": 6002,
      "ĠÃ¥nd": 6003,
      "Ġmerker": 6004,
      "ĠbesÃ¸ker": 6005,
      "snivÃ¥": 6006,
      "ĠSyn": 6007,
      "Ġball": 6008,
      "Ġskre": 6009,
      "ĠOffentlige": 6010,
      "Ġforhandling": 6011,
      "britann": 6012,
      "atning": 6013,
      "ĠDetalj": 6014,
      "ĠnÃ¸yaktig": 6015,
      "Ġordet": 6016,
      "Ġfaglige": 6017,
      "ĠInd": 6018,
      "ĠMÃ¥let": 6019,
      "ĠfÃ¸lte": 6020,
      "tar": 6021,
      "ain": 6022,
      "komst": 6023,
      "Ġsw": 6024,
      "Ġtilstede": 6025,
      "Ġgeneral": 6026,
      "Ġdans": 6027,
      "ĠArne": 6028,
      "stÃ¥ende": 6029,
      "Ġdeltakere": 6030,
      "Ġkravene": 6031,
      "ĠfÃ¦rre": 6032,
      "Ġbunn": 6033,
      "Ġutmerket": 6034,
      "ĠMu": 6035,
      "Ġinnstilling": 6036,
      "Ġbanen": 6037,
      "ĠinnrÃ¸": 6038,
      "Ġmaster": 6039,
      "ssam": 6040,
      "Ġfotograf": 6041,
      "ĠGam": 6042,
      "Ġskaffe": 6043,
      "aden": 6044,
      "ĠUtvik": 6045,
      "ĠRapp": 6046,
      "lant": 6047,
      "Ġekskl": 6048,
      "Ġflink": 6049,
      "ĠJohan": 6050,
      "ĠMÃ¸tedato": 6051,
      "ĠJÃ¸r": 6052,
      "ĠUkjent": 6053,
      "Ġideer": 6054,
      "ĠPaul": 6055,
      "fi": 6056,
      "ensasjon": 6057,
      "osof": 6058,
      "39": 6059,
      "ams": 6060,
      "Ġutvide": 6061,
      "ĠGu": 6062,
      "ĠVide": 6063,
      "Ġdobbelt": 6064,
      "Ġeffektivt": 6065,
      "Ġhyl": 6066,
      "enhet": 6067,
      "fÃ¸rsel": 6068,
      "Ġtvang": 6069,
      "alinger": 6070,
      "Ġgrenser": 6071,
      "ĠSÃ¸knad": 6072,
      "itering": 6073,
      "Ġdommer": 6074,
      "Ġbeskytte": 6075,
      "ytning": 6076,
      "angel": 6077,
      "Ġspiser": 6078,
      "Ġnasjonalt": 6079,
      "Ġkg": 6080,
      "Ġfrig": 6081,
      "Ġpraktiske": 6082,
      "Ġvondt": 6083,
      "Ġstatistikk": 6084,
      "Ġrelevante": 6085,
      "ĠVir": 6086,
      "ĠMy": 6087,
      "ĠForsk": 6088,
      "Ġdyp": 6089,
      "isa": 6090,
      "kehus": 6091,
      "cy": 6092,
      "Ġpedagog": 6093,
      "Ġproduktene": 6094,
      "Ġfulgte": 6095,
      "Ġstasjon": 6096,
      "ĠAb": 6097,
      "Ġbygning": 6098,
      "Ġdei": 6099,
      "Ġlevende": 6100,
      "data": 6101,
      "iseres": 6102,
      "Ġkonto": 6103,
      "ĠDrammen": 6104,
      "skrav": 6105,
      "apotek": 6106,
      "Ġovernatt": 6107,
      "Ġfelle": 6108,
      "ĠNordland": 6109,
      "teknologisk": 6110,
      "ĠforegÃ¥r": 6111,
      "sjoner": 6112,
      "Ã¸rte": 6113,
      "system": 6114,
      "Ġtils": 6115,
      "ĠHadde": 6116,
      "amet": 6117,
      "Ġvurderes": 6118,
      "Ġpul": 6119,
      "ĠtrÃ¥": 6120,
      "merk": 6121,
      "Ġopprette": 6122,
      "ĠHed": 6123,
      "ĠTra": 6124,
      "Ġsig": 6125,
      "ĠMad": 6126,
      "stol": 6127,
      "pert": 6128,
      "ĠgjennomgÃ¥": 6129,
      "Ġsenter": 6130,
      "ament": 6131,
      "The": 6132,
      "Ġrepresenterer": 6133,
      "Ġvisst": 6134,
      "Ġforklarer": 6135,
      "ĠÃ¸r": 6136,
      "Ġsykeple": 6137,
      "ĠArbeids": 6138,
      "tall": 6139,
      ":)": 6140,
      "Ġuka": 6141,
      "Ġinteg": 6142,
      "EM": 6143,
      "Ġfysiske": 6144,
      "Ġdef": 6145,
      "Ġdus": 6146,
      "ĠHo": 6147,
      "ollar": 6148,
      "systemet": 6149,
      "--": 6150,
      "stikk": 6151,
      "lagg": 6152,
      "Ġ34": 6153,
      "Ġsyns": 6154,
      "Ġtale": 6155,
      "ĠCl": 6156,
      "RI": 6157,
      "Ġfler": 6158,
      "ĠmÃ¸t": 6159,
      "ĠPlan": 6160,
      "nok": 6161,
      "Ġkommentarer": 6162,
      "Ġareal": 6163,
      "ĠNye": 6164,
      "sprÃ¥k": 6165,
      "ala": 6166,
      "ysten": 6167,
      "Ġbefinner": 6168,
      "ĠKjemisk": 6169,
      "Ġbygd": 6170,
      "Ġfru": 6171,
      "Ġproduksjonen": 6172,
      "Ġbeskriver": 6173,
      "asin": 6174,
      "jeld": 6175,
      "Ġkritikk": 6176,
      "Ġros": 6177,
      "serien": 6178,
      "Ġlinje": 6179,
      "Ġnede": 6180,
      "Ġkontinuer": 6181,
      "Ġforskere": 6182,
      "ĠHvorfor": 6183,
      "Ġkle": 6184,
      "emid": 6185,
      "Ġstrategi": 6186,
      "ĠnÃ¦ringsliv": 6187,
      "ĠArbeidsmarked": 6188,
      "Ġforster": 6189,
      "rÃ¥ket": 6190,
      "Ġoppbevar": 6191,
      "Ġskiller": 6192,
      "givere": 6193,
      "Ġpasienten": 6194,
      "ĠElektronikk": 6195,
      "ĠIfÃ¸lge": 6196,
      "Ġutenlandske": 6197,
      "Ag": 6198,
      "Ġdeltar": 6199,
      "Ġkostnader": 6200,
      "ssk": 6201,
      "Ġmyndighetene": 6202,
      "Ġterreng": 6203,
      "Ġbedt": 6204,
      "Ġalvorlige": 6205,
      "Ġboliger": 6206,
      "biler": 6207,
      "Ġgjennomgang": 6208,
      "Ġopprinnelige": 6209,
      "Ġnest": 6210,
      "ĠUnderholdning": 6211,
      "ĠSuper": 6212,
      "Ġfulgt": 6213,
      "ĠValg": 6214,
      "rimin": 6215,
      "ĠHÃ¥ndverk": 6216,
      "orld": 6217,
      "skon": 6218,
      "ĠBa": 6219,
      "Ġdekket": 6220,
      "rip": 6221,
      "gel": 6222,
      "Ġutgifter": 6223,
      "rop": 6224,
      "Ġfjerde": 6225,
      "Ġtriv": 6226,
      "asÃ¸ytisk": 6227,
      "Ġdaglige": 6228,
      "Ġmobilt": 6229,
      "Ġdit": 6230,
      "Ġhenger": 6231,
      "ĠRep": 6232,
      "atten": 6233,
      "sprogram": 6234,
      "Ġnettside": 6235,
      "iat": 6236,
      "Ġhjul": 6237,
      "Ġvurderer": 6238,
      "Ġsamler": 6239,
      "Ġfortj": 6240,
      "Ġstatsb": 6241,
      "ĠVelv": 6242,
      "??": 6243,
      "ĠNTNU": 6244,
      "alisere": 6245,
      "Ġsmerte": 6246,
      "Ġtildelt": 6247,
      "ĠEsc": 6248,
      "Ġregne": 6249,
      "ya": 6250,
      "Ġartikkel": 6251,
      "ĠVelvÃ¦re": 6252,
      "Ġmester": 6253,
      "innet": 6254,
      "Ġkirken": 6255,
      "vennlig": 6256,
      "Ġ$": 6257,
      "alender": 6258,
      "partiet": 6259,
      "Ġpga": 6260,
      "99": 6261,
      "orden": 6262,
      "Ġbehandlingen": 6263,
      "frastruktur": 6264,
      "Ġkonflikt": 6265,
      "Ġutforske": 6266,
      "Ġarter": 6267,
      "merker": 6268,
      "nda": 6269,
      "orene": 6270,
      "appar": 6271,
      "Ġbehandle": 6272,
      "agene": 6273,
      "personer": 6274,
      "70": 6275,
      "Ġtilstand": 6276,
      "Ġoffis": 6277,
      "teket": 6278,
      "jÃ¸re": 6279,
      "ĠundertÃ¸y": 6280,
      "asert": 6281,
      "ĠSkogbruk": 6282,
      "Ġnydelig": 6283,
      "ĠForeninger": 6284,
      "ĠSig": 6285,
      "olum": 6286,
      "ĠFigur": 6287,
      "Ġpersonopplysninger": 6288,
      "makt": 6289,
      "Ġhelset": 6290,
      "ĠJohann": 6291,
      "bler": 6292,
      "litter": 6293,
      "Ġdreier": 6294,
      "Ġfordeler": 6295,
      "Ġuttal": 6296,
      "Ġutvidet": 6297,
      "send": 6298,
      "Ġkone": 6299,
      "ĠNÃ¦ringsmiddel": 6300,
      "Ġnettleser": 6301,
      "ryt": 6302,
      "ĠpÃ¥pe": 6303,
      "ama": 6304,
      "ĠskjÃ¸nn": 6305,
      "adresse": 6306,
      "Reg": 6307,
      "Ġmorsomt": 6308,
      "Ġalb": 6309,
      "Ġseil": 6310,
      "Ġjust": 6311,
      "ĠTekn": 6312,
      "innen": 6313,
      "ĠSkjÃ¸nnhet": 6314,
      "Ġserien": 6315,
      "ĠÃĺstfold": 6316,
      "spillet": 6317,
      "Ġfi": 6318,
      "Be": 6319,
      "ute": 6320,
      "akult": 6321,
      "drift": 6322,
      "Ġsosialt": 6323,
      "mag": 6324,
      "Ġsykdommen": 6325,
      "ĠMel": 6326,
      "ĠFarmasÃ¸ytisk": 6327,
      "uen": 6328,
      "Ġkjed": 6329,
      "ĠBioteknologisk": 6330,
      "Ġbrudd": 6331,
      "ĠStyr": 6332,
      "Ġgalt": 6333,
      "Ġlette": 6334,
      "ĠTelefoni": 6335,
      "ĠOdd": 6336,
      "Ġsvarer": 6337,
      "sarbeid": 6338,
      "ĠKap": 6339,
      "lÃ¥n": 6340,
      "Ġkommunale": 6341,
      "Ġsnakk": 6342,
      "ĠOrganisasjoner": 6343,
      "Ġoppgaven": 6344,
      "Ġindusti": 6345,
      "ese": 6346,
      "stÃ¸tte": 6347,
      "ryg": 6348,
      "Ã¥te": 6349,
      "Ġavde": 6350,
      "Ġnevne": 6351,
      "Ã¦rum": 6352,
      "result": 6353,
      "ĠNÃ¸dnummer": 6354,
      "ual": 6355,
      "Ġam": 6356,
      "Ġkirk": 6357,
      "Ġreglene": 6358,
      "ĠBen": 6359,
      "Ġsyntes": 6360,
      "Ġutstilling": 6361,
      "Ġsunn": 6362,
      "Ġhusker": 6363,
      "Ġforeligger": 6364,
      "Ġbritiske": 6365,
      "Ġdrar": 6366,
      "Ġlurer": 6367,
      "ĠVe": 6368,
      "Ġkrevende": 6369,
      "ĠmÃ¸nster": 6370,
      "ĠKlikk": 6371,
      "blogg": 6372,
      "yg": 6373,
      "ĠLov": 6374,
      "olv": 6375,
      "ĠFunksjon": 6376,
      "Ġslippe": 6377,
      "Ġstoppe": 6378,
      "ĠEner": 6379,
      "Ġfortsatte": 6380,
      "Ġoperasjon": 6381,
      "ĠKvinner": 6382,
      "hÃ¸rer": 6383,
      "TV": 6384,
      "Ġforhin": 6385,
      "Ġarrangert": 6386,
      "75": 6387,
      "Ġkontra": 6388,
      "produkter": 6389,
      "oms": 6390,
      "Ġsliter": 6391,
      "Ġobserv": 6392,
      "ĠAnn": 6393,
      "Ġpat": 6394,
      "butikk": 6395,
      "kurs": 6396,
      "AP": 6397,
      "ĠUi": 6398,
      "Ġbedriften": 6399,
      "forbundet": 6400,
      "skraft": 6401,
      "Ġgrundig": 6402,
      "Ġtyn": 6403,
      "uddet": 6404,
      "inav": 6405,
      "redi": 6406,
      "iverse": 6407,
      "last": 6408,
      "mos": 6409,
      "jeringen": 6410,
      "Ġskapt": 6411,
      "Ġlat": 6412,
      "Ġreal": 6413,
      "Ġbetalt": 6414,
      "ĠgÃ¥rd": 6415,
      "Ġgjenoppretting": 6416,
      "vart": 6417,
      "ĠmiljÃ¸et": 6418,
      "ĠleverandÃ¸r": 6419,
      "Ġforestil": 6420,
      "statning": 6421,
      "ĠPr": 6422,
      "Ġelektronisk": 6423,
      "tten": 6424,
      "ĠHusk": 6425,
      "Ġry": 6426,
      "Ġeleven": 6427,
      "okument": 6428,
      "jeg": 6429,
      "Ġeventyr": 6430,
      "ktene": 6431,
      "kamp": 6432,
      "retning": 6433,
      "ĠBli": 6434,
      "Ġcum": 6435,
      "Ġgate": 6436,
      "Ġberedskap": 6437,
      "Ġmengder": 6438,
      "FF": 6439,
      "ĠQu": 6440,
      "IfÃ¸lge": 6441,
      "ĠItali": 6442,
      "alisert": 6443,
      "Ġtjenestene": 6444,
      "Ġtreffe": 6445,
      "ĠBro": 6446,
      "emark": 6447,
      "Ġprogrammer": 6448,
      "inert": 6449,
      "Ġenig": 6450,
      "ĠOL": 6451,
      "Ġverken": 6452,
      "vidt": 6453,
      "skoler": 6454,
      "ned": 6455,
      "Ġ2001": 6456,
      "stjenester": 6457,
      "Ġkaffe": 6458,
      "stekn": 6459,
      "Ġresul": 6460,
      "geb": 6461,
      "ulerer": 6462,
      "Ġinnsikt": 6463,
      "Ġhovedsakelig": 6464,
      "ĠundersÃ¸ke": 6465,
      "britannia": 6466,
      "ĠbÃ¦r": 6467,
      "Ġskru": 6468,
      "Ġgjester": 6469,
      "ĠVik": 6470,
      "Ġasyl": 6471,
      "Ġminimum": 6472,
      "Ġsene": 6473,
      "ileder": 6474,
      "ĠstÃ¥l": 6475,
      "avtalen": 6476,
      "Ġhemmelig": 6477,
      "Ġlesbisk": 6478,
      "Ġulov": 6479,
      "Ġleveres": 6480,
      "ric": 6481,
      "Ġfjern": 6482,
      "Ġberegnet": 6483,
      "jerner": 6484,
      "onym": 6485,
      "Ġperspekt": 6486,
      "ĠsÃ¸rger": 6487,
      "ĠThor": 6488,
      "Ġgen": 6489,
      "Ġvisse": 6490,
      "Ġsamtale": 6491,
      "Ġverdenskrig": 6492,
      "Ġnegative": 6493,
      "Ġinitiativ": 6494,
      "ilder": 6495,
      "Ġrutiner": 6496,
      "Ġsver": 6497,
      "ĠMark": 6498,
      "Ġromant": 6499,
      "ivalen": 6500,
      "Ġvokser": 6501,
      "ĠHansen": 6502,
      "Ġmodeller": 6503,
      "Ġhalvparten": 6504,
      "ational": 6505,
      "esse": 6506,
      "Ġprofesjonelle": 6507,
      "Ġballen": 6508,
      "90": 6509,
      "likevel": 6510,
      "Ġstudentene": 6511,
      "Ġhavet": 6512,
      "Ġutfordring": 6513,
      "senteret": 6514,
      "hengige": 6515,
      "Ġriktige": 6516,
      "Ġvelferd": 6517,
      "uta": 6518,
      "Ġhjemmet": 6519,
      "Ġovergang": 6520,
      "foreningen": 6521,
      "Ġbistand": 6522,
      "vitt": 6523,
      "ĠMal": 6524,
      "kser": 6525,
      "Ġtraf": 6526,
      "che": 6527,
      "Ġfordelt": 6528,
      "Ġkilder": 6529,
      "Ġgrep": 6530,
      "Ġopplysningene": 6531,
      "Ġepis": 6532,
      "Ġutse": 6533,
      "Ġvelkommen": 6534,
      "ĠThomas": 6535,
      "Ġ2002": 6536,
      "ĠFÃ¸rste": 6537,
      "Ġfylt": 6538,
      "Ġkontinuerlig": 6539,
      "Ġ33": 6540,
      "Ġaksje": 6541,
      "ĠDetaljvarer": 6542,
      "Ġvurderinger": 6543,
      "Ġkoselig": 6544,
      "ĠInstitutt": 6545,
      "Ġkoster": 6546,
      "organisasjon": 6547,
      "ĠavgjÃ¸re": 6548,
      "Ġbestemmer": 6549,
      "ĠBodÃ¸": 6550,
      "agere": 6551,
      "Ġsamarbeidspart": 6552,
      "Ġgrunnen": 6553,
      "date": 6554,
      "ĠDav": 6555,
      "Ġrepresentanter": 6556,
      "Ġtekster": 6557,
      "Ġforklare": 6558,
      "Ġengang": 6559,
      "Ġfeir": 6560,
      "Ġfengsel": 6561,
      "ĀĀ": 6562,
      "Ġmikro": 6563,
      "leverand": 6564,
      "Ġutnytte": 6565,
      "api": 6566,
      "stasjon": 6567,
      "Ġavstand": 6568,
      "Ġindik": 6569,
      "Ġhandel": 6570,
      "Ġheldigvis": 6571,
      "Ġrekrutter": 6572,
      "iland": 6573,
      "ĠprÃ¸vde": 6574,
      "Ġrolig": 6575,
      "Ġfunn": 6576,
      "Ġtonn": 6577,
      "Ġherunder": 6578,
      "sevne": 6579,
      "oten": 6580,
      "Ġkapittel": 6581,
      "rak": 6582,
      "ĠSV": 6583,
      "vene": 6584,
      "Ġtallet": 6585,
      "speri": 6586,
      "skilt": 6587,
      "elset": 6588,
      "ĠGar": 6589,
      "saken": 6590,
      "Ġsjeld": 6591,
      "shemm": 6592,
      "ĠBor": 6593,
      "Ġlen": 6594,
      "Ġaltfor": 6595,
      "Ġdramat": 6596,
      "Ġigang": 6597,
      "Ġproduktet": 6598,
      "esund": 6599,
      "istene": 6600,
      "Ġregnes": 6601,
      "Ġforskjeller": 6602,
      "ĠprÃ¸vd": 6603,
      "ona": 6604,
      "ĠGa": 6605,
      "ĠstÃ¸rst": 6606,
      "andinav": 6607,
      "Ġoppgrader": 6608,
      "settelse": 6609,
      "Ġprofessor": 6610,
      "inere": 6611,
      "Ġpan": 6612,
      "Ġstavanger": 6613,
      "Ġhast": 6614,
      "Ġkampan": 6615,
      "ĠIsrael": 6616,
      "ĠnÃ¥vÃ¦rende": 6617,
      "Ġgud": 6618,
      "ĠleverandÃ¸rer": 6619,
      "bon": 6620,
      "forskning": 6621,
      "Ġhit": 6622,
      "Ġsju": 6623,
      "asjen": 6624,
      "Ġfjellet": 6625,
      "ĠDi": 6626,
      "ĠNO": 6627,
      "ĠmarkedsfÃ¸ring": 6628,
      "Ikke": 6629,
      "istan": 6630,
      "kking": 6631,
      "Ġstyrker": 6632,
      "Ġhil": 6633,
      "ĠTom": 6634,
      "ĠMet": 6635,
      "ĠJac": 6636,
      "ĠCom": 6637,
      "Ġkvinnen": 6638,
      "Ġpresentert": 6639,
      "Oslo": 6640,
      "ĠPris": 6641,
      "Ġbygges": 6642,
      "Ġelementer": 6643,
      "Ġjuster": 6644,
      "ĠÃ¸yne": 6645,
      "kningen": 6646,
      "ullet": 6647,
      "feransen": 6648,
      "Ġmaten": 6649,
      "ĠlÃ¸sningen": 6650,
      "skelige": 6651,
      "aren": 6652,
      "Ġsammenlignet": 6653,
      "Ġkonkrete": 6654,
      "ĠinngÃ¥r": 6655,
      "cc": 6656,
      "Ġna": 6657,
      "Ġoppover": 6658,
      "ĠHvil": 6659,
      "urens": 6660,
      "ĠAs": 6661,
      "Ġinnfly": 6662,
      "igh": 6663,
      "Ġbre": 6664,
      "Ġnettapotek": 6665,
      "Ġjurid": 6666,
      "olig": 6667,
      "Ġspurte": 6668,
      "th": 6669,
      "Ġlikte": 6670,
      "Ġank": 6671,
      "gÃ¥rd": 6672,
      "Ġkilometer": 6673,
      "ansvarlig": 6674,
      "markedet": 6675,
      "Ġnatten": 6676,
      "ĠAnd": 6677,
      "Ġkvinnelige": 6678,
      "Ġstats": 6679,
      "Ġit": 6680,
      "ĠEid": 6681,
      "Ġgrunnlaget": 6682,
      "Ġbordet": 6683,
      "ĠrÃ¸de": 6684,
      "Ġhjertet": 6685,
      "elet": 6686,
      "sfri": 6687,
      "edd": 6688,
      "Ġkines": 6689,
      "protokoll": 6690,
      "espÃ¸r": 6691,
      "ĠlÃ¦rt": 6692,
      "ĠoppstÃ¥": 6693,
      "Ġutgave": 6694,
      "Ġreligi": 6695,
      "ĠVan": 6696,
      "stiden": 6697,
      "Ġforum": 6698,
      "Ġobser": 6699,
      "Ġdvs": 6700,
      "Ġregistrere": 6701,
      "ĠiP": 6702,
      "ĠIL": 6703,
      "Ġtilknytning": 6704,
      "anti": 6705,
      "Ġregnet": 6706,
      "ĠBegge": 6707,
      "Ġlikt": 6708,
      "ĠCO": 6709,
      "rise": 6710,
      "inerer": 6711,
      "Ã¸ks": 6712,
      "ikerne": 6713,
      "ansene": 6714,
      "ĠtÃ¸rr": 6715,
      "TrÃ¸ndelag": 6716,
      "Ġdollar": 6717,
      "Ġkastet": 6718,
      "Ġnettdating": 6719,
      "Ġfamilier": 6720,
      "holm": 6721,
      "Ġkilde": 6722,
      "kra": 6723,
      "ĠAntall": 6724,
      "Ġfrivillige": 6725,
      "ertif": 6726,
      "AD": 6727,
      "ĠLind": 6728,
      "Ġkompon": 6729,
      "ĠAgentur": 6730,
      "VE": 6731,
      "Ġovers": 6732,
      "Ġdiskusjon": 6733,
      "ola": 6734,
      "Ġpause": 6735,
      "behÃ¸r": 6736,
      "2014": 6737,
      "Ġbelast": 6738,
      "Ġbokstav": 6739,
      "Ġdesignet": 6740,
      "Ġtingene": 6741,
      "eldigvis": 6742,
      "smidler": 6743,
      "still": 6744,
      "ĠIng": 6745,
      "ĠDessuten": 6746,
      "ielt": 6747,
      "ĠSaks": 6748,
      "ĠRa": 6749,
      "sinn": 6750,
      "Ġfan": 6751,
      "mmende": 6752,
      "lÃ¸st": 6753,
      "aking": 6754,
      "ĠFer": 6755,
      "ffekter": 6756,
      "Ġredde": 6757,
      "Ġhunder": 6758,
      "Ġanlegget": 6759,
      "ĠGunn": 6760,
      "ctor": 6761,
      "Ġmedlemmene": 6762,
      "Ġfeltet": 6763,
      "ĠVal": 6764,
      "Ġmottar": 6765,
      "sre": 6766,
      "jennom": 6767,
      "amper": 6768,
      "Ġskille": 6769,
      "36": 6770,
      "Ġstrid": 6771,
      "holdes": 6772,
      "ĠParis": 6773,
      "ĠArbeider": 6774,
      "Ġmult": 6775,
      "ĠUnivers": 6776,
      "ĠFolke": 6777,
      "brans": 6778,
      "Ġengasjer": 6779,
      "osjon": 6780,
      "Ġsove": 6781,
      "Ð¾": 6782,
      "ĠTakk": 6783,
      "Ġvilje": 6784,
      "ĠbÃ¥ten": 6785,
      "god": 6786,
      "Ġmaskin": 6787,
      "act": 6788,
      "ammen": 6789,
      "Ġadministrat": 6790,
      "service": 6791,
      "Ġmotsetning": 6792,
      "Ġgodkjenning": 6793,
      "ĠNTB": 6794,
      "ÃĺTE": 6795,
      "mene": 6796,
      "Ġ32": 6797,
      "ĠTIL": 6798,
      "ĠfÃ¸les": 6799,
      "ĠMassasje": 6800,
      "Ġpersonen": 6801,
      "Ġim": 6802,
      "Ġoftest": 6803,
      "opplÃ¦ring": 6804,
      "ĠInnledning": 6805,
      "isteret": 6806,
      "lÃ¥r": 6807,
      "Ġomtale": 6808,
      "ĠarbeidsmiljÃ¸": 6809,
      "Ġtestet": 6810,
      "foretak": 6811,
      "ĠetterspÃ¸r": 6812,
      "ĠnÃ¦rmer": 6813,
      "Ġturist": 6814,
      "fÃ¸lgende": 6815,
      "Ġtube": 6816,
      "Ġalders": 6817,
      "ĠTur": 6818,
      "Ġforholdene": 6819,
      "ynam": 6820,
      "ĠSil": 6821,
      "ĠÃ¥rsak": 6822,
      "klÃ¦r": 6823,
      "âĢĿ,": 6824,
      "ĠMaria": 6825,
      "Ġmulighetene": 6826,
      "Ġhistoriske": 6827,
      "faglig": 6828,
      "ĠWeb": 6829,
      "Ġiverks": 6830,
      "Ġforventninger": 6831,
      "Ġleter": 6832,
      "Ġinvolvert": 6833,
      "Ġoppfordrer": 6834,
      "Ġkvalitets": 6835,
      "Ġoverord": 6836,
      "ĠStra": 6837,
      "Ġutforming": 6838,
      "ukt": 6839,
      "Ġprodusere": 6840,
      "Ġsmart": 6841,
      "Ġpresenter": 6842,
      "lad": 6843,
      "Ġulik": 6844,
      "Ġherlig": 6845,
      "Ġstikk": 6846,
      "Ġkvaliteten": 6847,
      "Ġkvinnene": 6848,
      "Ġkritisk": 6849,
      "ĠJens": 6850,
      "jenter": 6851,
      "Ġeldste": 6852,
      "ĠIS": 6853,
      "Ġsjansen": 6854,
      "Ġislam": 6855,
      "ĠBÃ¦rum": 6856,
      "Ġtillate": 6857,
      "kretÃ¦r": 6858,
      "Ð°": 6859,
      "ĠHell": 6860,
      "minar": 6861,
      "Ġ150": 6862,
      "Ġgay": 6863,
      "ĠmÃ¸rke": 6864,
      "Ġtrygge": 6865,
      "Ġtilpasse": 6866,
      "33": 6867,
      "serer": 6868,
      "Ġbehandles": 6869,
      "ĠVen": 6870,
      "Ġford": 6871,
      "Ġkommende": 6872,
      "Ġsvak": 6873,
      "ydro": 6874,
      "Ġminutt": 6875,
      "ĠVÃ¥": 6876,
      "iko": 6877,
      "aterte": 6878,
      "iteten": 6879,
      "Ġatferd": 6880,
      "Ġ75": 6881,
      "Ġsteg": 6882,
      "dalen": 6883,
      "redt": 6884,
      "AK": 6885,
      "elske": 6886,
      "ĠTrykk": 6887,
      "Ġsies": 6888,
      "ĠinngÃ¥tt": 6889,
      "Ġtakt": 6890,
      "ĠKarl": 6891,
      "ĠForel": 6892,
      "ĠBlack": 6893,
      "prosjekter": 6894,
      "Ġstreng": 6895,
      "ĠsÃ¸te": 6896,
      "Ġkommenter": 6897,
      "Ġavtaler": 6898,
      "ĠMenn": 6899,
      "ĠLiv": 6900,
      "Ġtysk": 6901,
      "ytta": 6902,
      "legging": 6903,
      "Ġrammer": 6904,
      "Ġbestemme": 6905,
      "Ġkonkurransen": 6906,
      "Ġinteressante": 6907,
      "EF": 6908,
      "unden": 6909,
      "ĠFredrikstad": 6910,
      "Ġomfang": 6911,
      "US": 6912,
      "ĠThai": 6913,
      "Ġpartene": 6914,
      "Ġklikk": 6915,
      "ĠHÃ¸": 6916,
      "ĠforsÃ¸kt": 6917,
      "jal": 6918,
      "Ġsof": 6919,
      "vanlig": 6920,
      "ĠSelskapet": 6921,
      "Ġbefolkning": 6922,
      "Ã¸nder": 6923,
      "Ġ400": 6924,
      "Ġanses": 6925,
      "OMM": 6926,
      "Ġteste": 6927,
      "Ġekstremt": 6928,
      "ĠjÃ¸d": 6929,
      "Ġ?": 6930,
      "ĠmilitÃ¦r": 6931,
      "Ġserie": 6932,
      "sdatter": 6933,
      "Ġavdel": 6934,
      "Ġrart": 6935,
      "Ġmeldinger": 6936,
      "fang": 6937,
      "ĠbelÃ¸p": 6938,
      "Ġarrangement": 6939,
      "vard": 6940,
      "Ġbryl": 6941,
      "Ġnevnte": 6942,
      "press": 6943,
      "Ġteater": 6944,
      "ioder": 6945,
      "Ġpenis": 6946,
      "mater": 6947,
      "olje": 6948,
      "Ġbeslut": 6949,
      "irca": 6950,
      "Norsk": 6951,
      "Ġhytte": 6952,
      "Ġtverr": 6953,
      "ĠMarie": 6954,
      "Ġhunden": 6955,
      "engde": 6956,
      "Ġansett": 6957,
      "kultur": 6958,
      "ĠutfÃ¸rer": 6959,
      "ĠTw": 6960,
      "ĠMiljÃ¸": 6961,
      "ĠLag": 6962,
      "Ġverne": 6963,
      "Ġfjernet": 6964,
      "agram": 6965,
      "Ġmenneskene": 6966,
      "sr": 6967,
      "ega": 6968,
      "Ġsystemer": 6969,
      "Ġskjema": 6970,
      "ĠsÃ¸lv": 6971,
      "str": 6972,
      "ĠbesÃ¸kte": 6973,
      "undersÃ¸kelsen": 6974,
      "lingene": 6975,
      "Ġlavt": 6976,
      "ĠFly": 6977,
      "ĠÃ¥penbart": 6978,
      "direktÃ¸r": 6979,
      "Ġnu": 6980,
      "Ġforbe": 6981,
      "ĠGra": 6982,
      "Ġfortalt": 6983,
      "Ġforsikring": 6984,
      "vask": 6985,
      "Ġtilbudet": 6986,
      "lend": 6987,
      "ĠMod": 6988,
      "ĠHarald": 6989,
      "skyl": 6990,
      "Ġoppgitt": 6991,
      "ĠLeder": 6992,
      "Ã¸sning": 6993,
      "Ġlevering": 6994,
      "ĠÃ¸ya": 6995,
      "07": 6996,
      "egrupp": 6997,
      "Ġplassen": 6998,
      "Ġredig": 6999,
      "beveg": 7000,
      "ĠCon": 7001,
      "rerende": 7002,
      "Ġutelu": 7003,
      "Ġhandlinger": 7004,
      "Ġettermiddag": 7005,
      "pas": 7006,
      "Ġreiste": 7007,
      "skaff": 7008,
      "Ġrene": 7009,
      "Ġstoppet": 7010,
      "prisen": 7011,
      "atsen": 7012,
      "Ġopplyser": 7013,
      "rense": 7014,
      "ĠSo": 7015,
      "amme": 7016,
      "ksen": 7017,
      "Ġvill": 7018,
      "Ġteksten": 7019,
      "Ġdens": 7020,
      "Ġ1800": 7021,
      "Ġmengde": 7022,
      "edrift": 7023,
      "fÃ¸rings": 7024,
      "politikk": 7025,
      "ria": 7026,
      "Ġnorway": 7027,
      "Ġanbefale": 7028,
      "ĠsÃ¸knaden": 7029,
      "ĠFolk": 7030,
      "kjenning": 7031,
      "Ġfrivillig": 7032,
      "EG": 7033,
      "Ġgli": 7034,
      "ĠRogaland": 7035,
      "Ġtakket": 7036,
      "ĠinteriÃ¸r": 7037,
      "Ġmetode": 7038,
      "Ġskogen": 7039,
      "ĠbÃ¸kene": 7040,
      "baserte": 7041,
      "Ġfigur": 7042,
      "ĠMye": 7043,
      "Ġhoteller": 7044,
      "Ja": 7045,
      "ĠfÃ¸lelse": 7046,
      "Ġhender": 7047,
      "Ġag": 7048,
      "Ġgev": 7049,
      "forstÃ¥": 7050,
      "aket": 7051,
      "sprosjekt": 7052,
      "Ġrisikoen": 7053,
      "ĠAndreas": 7054,
      "valgte": 7055,
      "ĠRegion": 7056,
      "Ġholdes": 7057,
      "Ġborger": 7058,
      "Ġperfekte": 7059,
      "Ġlansert": 7060,
      "mmes": 7061,
      "ome": 7062,
      "Ġpassasjer": 7063,
      "Ġsant": 7064,
      "Ġkontroller": 7065,
      "vd": 7066,
      "ĠavlÃ¸p": 7067,
      "kunst": 7068,
      "ĠDin": 7069,
      "gjennom": 7070,
      "Ġstillinger": 7071,
      "eting": 7072,
      "ĠHF": 7073,
      "Ġkurset": 7074,
      "ĠmedfÃ¸rer": 7075,
      "Ġopplevde": 7076,
      "Ġset": 7077,
      "ĠAnder": 7078,
      "Ġspillerne": 7079,
      "Ġskuespiller": 7080,
      "Ġpappa": 7081,
      "ĠGran": 7082,
      "smod": 7083,
      "ĠutendÃ¸rs": 7084,
      "faring": 7085,
      "Ġvarmt": 7086,
      "chat": 7087,
      "ĠdÃ¥rlige": 7088,
      "ĠinnfÃ¸rt": 7089,
      "somhet": 7090,
      "Ġivareta": 7091,
      "ĠPorn": 7092,
      "Ġdekk": 7093,
      "Ġnormal": 7094,
      "Ġuly": 7095,
      "ssystem": 7096,
      "Ġledelsen": 7097,
      "Ġsikret": 7098,
      "vilkÃ¥r": 7099,
      "ague": 7100,
      "ĠbÃ¸l": 7101,
      "Ġopphav": 7102,
      "ĠBI": 7103,
      "Ġglade": 7104,
      "Ġimponer": 7105,
      "Ġ37": 7106,
      "iff": 7107,
      "Ġjub": 7108,
      "HO": 7109,
      "Ġutenom": 7110,
      "Ġslu": 7111,
      "FO": 7112,
      "edal": 7113,
      "ĠVann": 7114,
      "angementer": 7115,
      "inerte": 7116,
      "Ġsidene": 7117,
      "ĠLok": 7118,
      "Ġregionale": 7119,
      "ĠSim": 7120,
      "Ġspar": 7121,
      "Ġsingel": 7122,
      "Ġidag": 7123,
      "ĠSing": 7124,
      "Ġanbefales": 7125,
      "Ġinnov": 7126,
      "Ġbestilling": 7127,
      "bildet": 7128,
      "Ġallmenn": 7129,
      "ĠTrump": 7130,
      "ĠhjÃ¸r": 7131,
      "ova": 7132,
      "atikk": 7133,
      "ahl": 7134,
      "nsker": 7135,
      "park": 7136,
      "sund": 7137,
      "ĠutÃ¸ver": 7138,
      "omen": 7139,
      "atch": 7140,
      "programmet": 7141,
      "Ġfellesskap": 7142,
      "Ġmaler": 7143,
      "Ġhovedstad": 7144,
      "ÃĺR": 7145,
      "givning": 7146,
      "Ġhurtig": 7147,
      "Ġbrukeren": 7148,
      "Ġdigital": 7149,
      "Ġviktigere": 7150,
      "Ġbygninger": 7151,
      "Ġmotivasjon": 7152,
      "sti": 7153,
      "Ġku": 7154,
      "forn": 7155,
      "riksen": 7156,
      "ĠtenÃ¥ring": 7157,
      "iets": 7158,
      "Ġ08": 7159,
      "Ġutdannings": 7160,
      "Ġtit": 7161,
      "Ġdeltakelse": 7162,
      "ĠHele": 7163,
      "Ġrehabil": 7164,
      "personell": 7165,
      "ating": 7166,
      "ock": 7167,
      "Ġskilt": 7168,
      "Ġstilte": 7169,
      "Ġinspirert": 7170,
      "ĠHotel": 7171,
      "Ġdanske": 7172,
      "ĠMann": 7173,
      "aktÃ¸r": 7174,
      "vise": 7175,
      "ementet": 7176,
      "Ġgrense": 7177,
      "omrÃ¥dene": 7178,
      "ĠHos": 7179,
      "Ġreser": 7180,
      "Ġantallet": 7181,
      "eloven": 7182,
      "Ġbegrunn": 7183,
      "ĠnÃ¦rt": 7184,
      "Ġgifte": 7185,
      "ll": 7186,
      "itivt": 7187,
      "Ġdiverse": 7188,
      "Ġovergrep": 7189,
      "ĠvÃ¥k": 7190,
      "Ġmillion": 7191,
      "ĠAnal": 7192,
      "iru": 7193,
      "ĠKort": 7194,
      "2013": 7195,
      "ĠPri": 7196,
      "Ġbransjen": 7197,
      "Ġaksjon": 7198,
      "Ġfrihet": 7199,
      "Ġmyndighet": 7200,
      "Ġsambo": 7201,
      "ighetene": 7202,
      "Ġhull": 7203,
      "Ġskriv": 7204,
      "low": 7205,
      "ktighet": 7206,
      "Ġinstitusjoner": 7207,
      "UT": 7208,
      "veier": 7209,
      "Ġbetaler": 7210,
      "Ġutvalget": 7211,
      "vinning": 7212,
      "38": 7213,
      "oth": 7214,
      "ĠProsjektet": 7215,
      "ving": 7216,
      "Kan": 7217,
      "Ġdimensjon": 7218,
      "ĠErot": 7219,
      "Ġverre": 7220,
      "Ġregistrering": 7221,
      "Ġsirk": 7222,
      "Ġender": 7223,
      "sikkerhet": 7224,
      "Ġoblig": 7225,
      "Ġdeltakerne": 7226,
      "skuddet": 7227,
      "ĠSw": 7228,
      "ĠBeste": 7229,
      "planen": 7230,
      "Ġfriluft": 7231,
      "barhet": 7232,
      "Ġvegne": 7233,
      "Ġeffektive": 7234,
      "Ġregulering": 7235,
      "ĠFree": 7236,
      "oh": 7237,
      "Ġapo": 7238,
      "ĠCity": 7239,
      "Ġtel": 7240,
      "ĠdÃ¸mt": 7241,
      "Ġkunden": 7242,
      "ĠFrem": 7243,
      "ĠUansett": 7244,
      "Ġfranske": 7245,
      "ĠItalia": 7246,
      "ĠAP": 7247,
      "Ġfaren": 7248,
      "ĠStorbritannia": 7249,
      "Ġforretnings": 7250,
      "Ġkyst": 7251,
      "ĠskjÃ¸": 7252,
      "Ġnoens": 7253,
      "Ġskjermen": 7254,
      "Ġpark": 7255,
      "abeth": 7256,
      "ĠnÃ¸dvendigvis": 7257,
      "Ðµ": 7258,
      "ĠsÃ¸t": 7259,
      "regn": 7260,
      "ĠSal": 7261,
      "Ã¥ring": 7262,
      "ĠMand": 7263,
      "hi": 7264,
      "ĠpÃ¥rÃ¸rende": 7265,
      "Ġnedover": 7266,
      "ĠPros": 7267,
      "Ġtemaet": 7268,
      "Ġlunsj": 7269,
      "Ġoppdrett": 7270,
      "Ġorden": 7271,
      "Ġsort": 7272,
      "Ġstolt": 7273,
      "ĠdÃ¸gn": 7274,
      "ini": 7275,
      "lemme": 7276,
      "Ġlikestilling": 7277,
      "Ġlikhet": 7278,
      "Ġfattig": 7279,
      "ĠStart": 7280,
      "Ġvedlegg": 7281,
      "Ġforsik": 7282,
      "Ġryggen": 7283,
      "Ġsenior": 7284,
      "34": 7285,
      "Ġmiste": 7286,
      "ĠNOK": 7287,
      "Ġkvartal": 7288,
      "ĠinnfÃ¸ring": 7289,
      "Ġarbeidslivet": 7290,
      "Ġtrengte": 7291,
      "arch": 7292,
      "olket": 7293,
      "Ġvakt": 7294,
      "Ġsover": 7295,
      "Ġintegr": 7296,
      "ance": 7297,
      "ĠRett": 7298,
      "ĠgrÃ¸nne": 7299,
      "Ġregionen": 7300,
      "cel": 7301,
      "Ġpsykiske": 7302,
      "kvalitet": 7303,
      "Ġavgift": 7304,
      "ĠAlex": 7305,
      "Ġkonkl": 7306,
      "Ġytre": 7307,
      "Ġutvalgte": 7308,
      "Ġnom": 7309,
      "ĠBel": 7310,
      "ella": 7311,
      "Ġpluss": 7312,
      "Ġskjerm": 7313,
      "Ġvirkeligheten": 7314,
      "Ġ00": 7315,
      "ĠPe": 7316,
      "ĠMÃ¸tet": 7317,
      "Ġklage": 7318,
      "krig": 7319,
      "ĠSki": 7320,
      "stiltak": 7321,
      "myndig": 7322,
      "37": 7323,
      "ĠNOR": 7324,
      "ited": 7325,
      "Ġbetrakt": 7326,
      "Ġbevegelse": 7327,
      "ĠSj": 7328,
      "Ġleker": 7329,
      "31": 7330,
      "2018": 7331,
      "oppgjÃ¸r": 7332,
      "sbygg": 7333,
      "Ġmaterialer": 7334,
      "Ġrettferdig": 7335,
      "Ġsjanse": 7336,
      "ĠFinnmark": 7337,
      "Ġvarierer": 7338,
      "ismen": 7339,
      "Ġbevil": 7340,
      "Ġmeldt": 7341,
      "ĠsÃ¥pass": 7342,
      "Ġstyring": 7343,
      "leks": 7344,
      "Ġvanskelige": 7345,
      "bÃ¸r": 7346,
      "dato": 7347,
      "Ġrevolusjon": 7348,
      "vold": 7349,
      "Ġkjendiser": 7350,
      "Ġforholde": 7351,
      "Ġsendte": 7352,
      "ĠMorten": 7353,
      "Ġtrygghet": 7354,
      "Ġradio": 7355,
      "Ġskadet": 7356,
      "entre": 7357,
      "veksling": 7358,
      "Ġinnskudd": 7359,
      "ĠpopulÃ¦rt": 7360,
      "Ġinfrastruktur": 7361,
      "Ġsamarbeide": 7362,
      "Ġuen": 7363,
      "opping": 7364,
      "Ġfaktorer": 7365,
      "blad": 7366,
      "valtning": 7367,
      "Ġslutte": 7368,
      "erende": 7369,
      "Ġinvolver": 7370,
      "Ġsekunder": 7371,
      "Ġdrevet": 7372,
      "ĠHenrik": 7373,
      "Ġintegrer": 7374,
      "rister": 7375,
      "ĠSpania": 7376,
      "Ġkaste": 7377,
      "Ġplikt": 7378,
      "emale": 7379,
      "sendt": 7380,
      "Ġbarnehager": 7381,
      "akultet": 7382,
      "mming": 7383,
      "ĠBus": 7384,
      "stri": 7385,
      "Ġreduksjon": 7386,
      "odene": 7387,
      "onsen": 7388,
      "ĠKristin": 7389,
      "Ġentrepren": 7390,
      "Ġutarbeide": 7391,
      "Ġgradvis": 7392,
      "Ġhjemmeside": 7393,
      "dem": 7394,
      "Ġlevit": 7395,
      "Ġrulle": 7396,
      "ĠSK": 7397,
      "igg": 7398,
      "ografi": 7399,
      "JON": 7400,
      "mÃ¸tet": 7401,
      "umentet": 7402,
      "Ġsmar": 7403,
      "Vel": 7404,
      "orm": 7405,
      "Ġlevitra": 7406,
      "gjen": 7407,
      "Ġformann": 7408,
      "Ġinstitutt": 7409,
      "ross": 7410,
      "Ġ38": 7411,
      "Ġmassage": 7412,
      "Ġbursdag": 7413,
      "ĠVÃ¥rt": 7414,
      "Ġoverrasket": 7415,
      "ĠPet": 7416,
      "Ġtilbakemeldinger": 7417,
      "ordning": 7418,
      "Man": 7419,
      "offer": 7420,
      "ĠAften": 7421,
      "ĠidÃ©": 7422,
      "Ġkonsept": 7423,
      "smed": 7424,
      "Ġgenerelle": 7425,
      "ĠSjekk": 7426,
      "ĠAV": 7427,
      "Ġklassen": 7428,
      "Ġbibliotek": 7429,
      "Ġsite": 7430,
      "ĠVelg": 7431,
      "Ġtotale": 7432,
      "messige": 7433,
      "kende": 7434,
      "Ġske": 7435,
      "Ġoppdage": 7436,
      "ĠÃ¥rlige": 7437,
      "Ġ1990": 7438,
      "Ġbetal": 7439,
      "ĠHÃ¥per": 7440,
      ".:": 7441,
      "Ġanled": 7442,
      "Ġforslaget": 7443,
      "gin": 7444,
      "strid": 7445,
      "alderen": 7446,
      "ĠHelt": 7447,
      "Ġoppvar": 7448,
      "splikt": 7449,
      "Ġusikker": 7450,
      "Ġ!": 7451,
      "Ãĥ": 7452,
      "ĠstÃ¥tt": 7453,
      "2012": 7454,
      "Ġlandene": 7455,
      "Ġhomofile": 7456,
      "Ġvellykket": 7457,
      "ĠbÃ¦rer": 7458,
      "iert": 7459,
      "Ġframtid": 7460,
      "splass": 7461,
      "Ġreflekter": 7462,
      "Ġretter": 7463,
      "ollender": 7464,
      "isiner": 7465,
      "Ġoppvekst": 7466,
      "ĠDagens": 7467,
      "Ġeksklus": 7468,
      "Vis": 7469,
      "ĠEsp": 7470,
      "ĠPrÃ¸": 7471,
      "Ġpolitikere": 7472,
      "Ġengasjert": 7473,
      "Ġmatematikk": 7474,
      "Ġkunnskaps": 7475,
      "likket": 7476,
      "Ġsnar": 7477,
      "aton": 7478,
      "Ġetterl": 7479,
      "UR": 7480,
      "Ġaksjer": 7481,
      "Ġtungt": 7482,
      "ĠbÃ¦rekraftig": 7483,
      "ows": 7484,
      "Ġpassord": 7485,
      "fullt": 7486,
      "Ġbonus": 7487,
      "Ġverste": 7488,
      "Ġprosesser": 7489,
      "ĠNatur": 7490,
      "ĠTak": 7491,
      "ĠEksemp": 7492,
      "nelse": 7493,
      "Ġklat": 7494,
      "opper": 7495,
      "Ġflyt": 7496,
      "Ġforskjellen": 7497,
      "fug": 7498,
      "Ġmuslim": 7499,
      "nden": 7500,
      "ĠNasjonal": 7501,
      "vakt": 7502,
      "dighet": 7503,
      "ĠlÃ¸fte": 7504,
      "skost": 7505,
      "Ġukjent": 7506,
      "Arbeid": 7507,
      "Ġunik": 7508,
      "www": 7509,
      "famil": 7510,
      "Ġdanse": 7511,
      "ĠSenter": 7512,
      "main": 7513,
      "Ġoverraskende": 7514,
      "ĠDere": 7515,
      "Ġandres": 7516,
      "Ġflertall": 7517,
      "Ġess": 7518,
      "Ġdog": 7519,
      "Ġende": 7520,
      "Ġdukker": 7521,
      "Ġmagen": 7522,
      "ĠLev": 7523,
      "ĠÃ¥rhund": 7524,
      "Ġmorsom": 7525,
      "Ġvanskeligere": 7526,
      "edia": 7527,
      "klart": 7528,
      "Ġorganisert": 7529,
      "ote": 7530,
      "ensikt": 7531,
      "Ġselskapets": 7532,
      "ĠIsland": 7533,
      "ĠLeague": 7534,
      "verden": 7535,
      "ĠOla": 7536,
      "Ġbruks": 7537,
      "Ġkonkurrans": 7538,
      "lement": 7539,
      "Ġcam": 7540,
      "Ġbestemmelser": 7541,
      "inske": 7542,
      "Ġnys": 7543,
      "ĠStand": 7544,
      "inerende": 7545,
      "ĠÃ¥rsaker": 7546,
      "ĠÃ¦re": 7547,
      "Siden": 7548,
      "Ã¡": 7549,
      "Ġsertif": 7550,
      "ĠInt": 7551,
      "Ġgulv": 7552,
      "Ġsan": 7553,
      "Ġitali": 7554,
      "Ġkjerne": 7555,
      "Ġorientering": 7556,
      "ĠVI": 7557,
      "Ġvakker": 7558,
      "Ġkonge": 7559,
      "hammer": 7560,
      "hal": 7561,
      "Ġsykehuset": 7562,
      "Pl": 7563,
      "ĠProdu": 7564,
      "Ġprogramvare": 7565,
      "Ġrente": 7566,
      "Ġsyv": 7567,
      "skader": 7568,
      "Ġforventer": 7569,
      "Ġklokka": 7570,
      "ĠNorwegian": 7571,
      "Ġinfo": 7572,
      "Mar": 7573,
      "bilde": 7574,
      "Over": 7575,
      "ĠvÃ¦": 7576,
      "Ġspenning": 7577,
      "Ġsepar": 7578,
      "Ġarbeidstaker": 7579,
      "Ġkje": 7580,
      "Ġdeles": 7581,
      "Ġlandsb": 7582,
      "Ġturner": 7583,
      "Ġinstal": 7584,
      "ĠmÃ¥neden": 7585,
      "Ġoffisielle": 7586,
      "Ġutfordrende": 7587,
      "ĠHvem": 7588,
      "renn": 7589,
      "sliv": 7590,
      "ĠAp": 7591,
      "Ġkommers": 7592,
      "Ġtillatt": 7593,
      "Ġsivil": 7594,
      "cam": 7595,
      "Ġalternativer": 7596,
      "bjÃ¸rn": 7597,
      "Ġskudd": 7598,
      "Ġ55": 7599,
      "sku": 7600,
      "unget": 7601,
      "Ġkarriere": 7602,
      "hot": 7603,
      "sdal": 7604,
      "Ġvirket": 7605,
      "ĠÃ¸delagt": 7606,
      "ingers": 7607,
      "ĠKro": 7608,
      "Ã¥fÃ¸r": 7609,
      "Ġstren": 7610,
      "ĠPort": 7611,
      "Ġregi": 7612,
      "ĠâĢĶ": 7613,
      "ĠDelt": 7614,
      "Ġsjekket": 7615,
      "ĠBon": 7616,
      "Ġbeholde": 7617,
      "ĠtilhÃ¸rende": 7618,
      "Or": 7619,
      "eten": 7620,
      "Ġwh": 7621,
      "Ġtempo": 7622,
      "alk": 7623,
      "Ġforebygge": 7624,
      "Ġescorte": 7625,
      "Ã¸rrelse": 7626,
      "ĠlÃ¥ne": 7627,
      "ĠKontroll": 7628,
      "Ġsor": 7629,
      "feksjon": 7630,
      "Ġnoensinne": 7631,
      "Ġgenerell": 7632,
      "lyst": 7633,
      "Ġfulle": 7634,
      "ĠVestfold": 7635,
      "ĠLO": 7636,
      "Ġanalyser": 7637,
      "Ġlesere": 7638,
      "Ġkjennet": 7639,
      "bert": 7640,
      "ikasjoner": 7641,
      "Ġkontrollere": 7642,
      "hop": 7643,
      "Ġmekan": 7644,
      "ĠBir": 7645,
      "Ġeffekten": 7646,
      "Ġforeta": 7647,
      "Ġplanlegge": 7648,
      "ĠPol": 7649,
      "Ġlagre": 7650,
      "Ġfilosof": 7651,
      "NING": 7652,
      "ĠDo": 7653,
      "Ġfoto": 7654,
      "utslipp": 7655,
      "egen": 7656,
      "abell": 7657,
      "Ġfornuft": 7658,
      "ildo": 7659,
      "ĠMagn": 7660,
      "Ġrammet": 7661,
      "Ã¥pentlig": 7662,
      "ĠtilhÃ¸rer": 7663,
      "Ġarena": 7664,
      "ĠgrÃ¸nnsaker": 7665,
      "Ġfen": 7666,
      "Ġcamp": 7667,
      "ĠDavid": 7668,
      "papir": 7669,
      "Ġbidratt": 7670,
      "ĠPR": 7671,
      "NO": 7672,
      "Ġlast": 7673,
      "Ġklasser": 7674,
      "selskap": 7675,
      "Ġfersk": 7676,
      "lister": 7677,
      "ĠNÃ¦rings": 7678,
      "mpe": 7679,
      "ĠspÃ¸rsmÃ¥lene": 7680,
      "Ġvokse": 7681,
      "onert": 7682,
      "Ġvand": 7683,
      "arl": 7684,
      "smet": 7685,
      "Ġinneholde": 7686,
      "ati": 7687,
      "lesund": 7688,
      "Ġsamtykke": 7689,
      "Ġinviterer": 7690,
      "ĠnÃ¸dt": 7691,
      "leg": 7692,
      "Ġsites": 7693,
      "IV": 7694,
      "ĠCol": 7695,
      "hengighet": 7696,
      "ĠÃ¥rsaken": 7697,
      "Ġimple": 7698,
      "leketÃ¸y": 7699,
      "adal": 7700,
      "Ġklikke": 7701,
      "Ġprofesjonell": 7702,
      "ĠfartÃ¸y": 7703,
      "abelt": 7704,
      "Ġdist": 7705,
      "ĠoppfÃ¸rt": 7706,
      "Ġplikter": 7707,
      "klass": 7708,
      "Ġsluttet": 7709,
      "Ġvunnet": 7710,
      "itÃ©": 7711,
      "ikon": 7712,
      "assdrag": 7713,
      "Ġsystematisk": 7714,
      "Ġbuss": 7715,
      "Ġnull": 7716,
      "Ġlab": 7717,
      "undt": 7718,
      "ĠkÃ¥ret": 7719,
      "ĠHollender": 7720,
      "Ġmedisinsk": 7721,
      "ĠSolberg": 7722,
      "Ġinvitert": 7723,
      "Ġstudiet": 7724,
      "Ġknytte": 7725,
      "Ġtolk": 7726,
      "Ġ39": 7727,
      "ĠmÃ¥ltid": 7728,
      "ĠÃ¥rsmÃ¸te": 7729,
      "atorer": 7730,
      "viser": 7731,
      "ĠskjÃ¸nnhet": 7732,
      "ĠHistor": 7733,
      "oppen": 7734,
      "ĠInst": 7735,
      "ssels": 7736,
      "ĠAss": 7737,
      "Ġcan": 7738,
      "hjel": 7739,
      "lf": 7740,
      "ley": 7741,
      "lands": 7742,
      "iblioteket": 7743,
      "do": 7744,
      "rolig": 7745,
      "verdige": 7746,
      "Ġbeskrivelse": 7747,
      "ĠRiksrevisjon": 7748,
      "Ġvib": 7749,
      "Ġhalvt": 7750,
      "MÃ¸te": 7751,
      "Ã¸mte": 7752,
      "Ġvennlig": 7753,
      "ĠApple": 7754,
      "Ġmenneskerett": 7755,
      "moen": 7756,
      "iven": 7757,
      "ĠPlay": 7758,
      "ĠpÃ¥peker": 7759,
      "Ġidentitet": 7760,
      "SL": 7761,
      "vinner": 7762,
      "innes": 7763,
      "Ġbryst": 7764,
      "tting": 7765,
      "misjon": 7766,
      "ĠÃ¸velser": 7767,
      "Ġvaske": 7768,
      "ĠsÃ¥kalt": 7769,
      "itenskap": 7770,
      "Ġvask": 7771,
      "Ġforkant": 7772,
      "hailand": 7773,
      "funksjon": 7774,
      "ĠAut": 7775,
      "attere": 7776,
      "ĠWind": 7777,
      "Ġforber": 7778,
      "ĠIKT": 7779,
      "Ġbarnevern": 7780,
      "bransjen": 7781,
      "ĠWe": 7782,
      "Ġtrukket": 7783,
      "Ã¨": 7784,
      "Ġstilt": 7785,
      "Ġubeh": 7786,
      "foss": 7787,
      "Ġventil": 7788,
      "ĠutfÃ¸r": 7789,
      "Ġtrond": 7790,
      "norsk": 7791,
      "ĠNei": 7792,
      "Ġliksom": 7793,
      "innene": 7794,
      "skerud": 7795,
      "ĠstÃ¸v": 7796,
      "onger": 7797,
      "ĠtilbehÃ¸r": 7798,
      "ĠAud": 7799,
      "Ġregner": 7800,
      "ĠdÃ¥rligere": 7801,
      "rosoft": 7802,
      "autom": 7803,
      "Ġinnk": 7804,
      "Ġpeker": 7805,
      "Ġveter": 7806,
      "Ġvelg": 7807,
      "Ġforetatt": 7808,
      "fjorden": 7809,
      "listen": 7810,
      "Ġlete": 7811,
      "istikken": 7812,
      "Ġpakke": 7813,
      "EST": 7814,
      "skip": 7815,
      "ĠJensen": 7816,
      "mosf": 7817,
      "Ġ48": 7818,
      "Ġobjekt": 7819,
      "Ġvidt": 7820,
      "Ġspesialist": 7821,
      "job": 7822,
      "sÃ¸ker": 7823,
      "Ġstrekker": 7824,
      "ĠNet": 7825,
      "ĠTidligere": 7826,
      "plett": 7827,
      "ĠkjÃ¸ring": 7828,
      "Ġhenge": 7829,
      "mbol": 7830,
      "pensjon": 7831,
      "ĠMatt": 7832,
      "Ġkonsul": 7833,
      "organisasjoner": 7834,
      "ny": 7835,
      "Ã¸pt": 7836,
      "brukere": 7837,
      "Ġkravet": 7838,
      "ĠMolde": 7839,
      "Ġtusenvis": 7840,
      "Ġmal": 7841,
      "Ġbeskyttelse": 7842,
      "Ġeiendommen": 7843,
      "Ġgjestene": 7844,
      "Bru": 7845,
      "Ġ1999": 7846,
      "At": 7847,
      "NT": 7848,
      "Ļ¥": 7849,
      "Ġrus": 7850,
      "ĠkjÃ¸kkenet": 7851,
      "Ġansiktet": 7852,
      "IK": 7853,
      "Ġhest": 7854,
      "Ġtester": 7855,
      "klokker": 7856,
      "Ġsymptomer": 7857,
      "gikk": 7858,
      "Ġukene": 7859,
      "ĠbÃ¥nd": 7860,
      "Ġpresset": 7861,
      "Ġ188": 7862,
      "Ġadvokat": 7863,
      "ĠsÃ¸kte": 7864,
      "Ġamerikansk": 7865,
      "lek": 7866,
      "Ġektef": 7867,
      "val": 7868,
      "Ġkonkluder": 7869,
      "Ġhjernen": 7870,
      "Ġpra": 7871,
      "alog": 7872,
      "ĠfÃ¸lelsen": 7873,
      "kehuset": 7874,
      "Ġgjennomsnittlig": 7875,
      "Ġok": 7876,
      "ilsynet": 7877,
      "Ġerstatning": 7878,
      "ĠLy": 7879,
      "ĠsÃ¸ster": 7880,
      "Ġfrokost": 7881,
      "ĠGi": 7882,
      "splanen": 7883,
      "Ġutstyrt": 7884,
      "ĠGrupp": 7885,
      "Ġkortere": 7886,
      "Ġtant": 7887,
      "Ġ189": 7888,
      "ĠÃ¦rlig": 7889,
      "oris": 7890,
      "raksjoner": 7891,
      "smeld": 7892,
      "ittet": 7893,
      "Ġseksuelle": 7894,
      "rette": 7895,
      "Ġed": 7896,
      "merke": 7897,
      "Ġklassisk": 7898,
      "hild": 7899,
      "ĠÃ¸re": 7900,
      "edyr": 7901,
      "Ġstudere": 7902,
      "Ġintrodus": 7903,
      "Ġraske": 7904,
      "ÃĺS": 7905,
      "anlegget": 7906,
      "Ġtrondheim": 7907,
      "ĠNe": 7908,
      "ĠEks": 7909,
      "vesenet": 7910,
      "aliser": 7911,
      "Ġmail": 7912,
      "Ġhenholdsvis": 7913,
      "Ġrepresentant": 7914,
      "rommet": 7915,
      "Ġtunn": 7916,
      "DE": 7917,
      "ĠFÃ¥": 7918,
      "Ġbyens": 7919,
      "edes": 7920,
      "stoffer": 7921,
      "Ġskyte": 7922,
      "Ġ01": 7923,
      "Ġtrengs": 7924,
      "Ġkonsesjon": 7925,
      "Ġult": 7926,
      "ĠElev": 7927,
      "Ġbekreftet": 7928,
      "Gjennom": 7929,
      "iseringen": 7930,
      "32": 7931,
      "ĠHels": 7932,
      "Ġutseende": 7933,
      "aliteten": 7934,
      "Ġlede": 7935,
      "klÃ¦ring": 7936,
      "appen": 7937,
      "boka": 7938,
      "lings": 7939,
      "stilbud": 7940,
      "Ġbevege": 7941,
      "Ġgrov": 7942,
      "Ġinntekter": 7943,
      "ĠHedmark": 7944,
      "sgiver": 7945,
      "ttene": 7946,
      "ĠMac": 7947,
      "Ġ2019": 7948,
      "Ġpartiet": 7949,
      "ĠpopulÃ¦r": 7950,
      "Ġrestaurant": 7951,
      "Ġfransk": 7952,
      "ĠArkiv": 7953,
      "ĠHÃ¸gskolen": 7954,
      ".âĢĿ": 7955,
      "busjon": 7956,
      "ĠsÃ¸vn": 7957,
      "Ġvidereutvik": 7958,
      "Ġetn": 7959,
      "Ġperioder": 7960,
      "perioden": 7961,
      "65": 7962,
      "isser": 7963,
      "astro": 7964,
      "omb": 7965,
      "ĠoppnÃ¥d": 7966,
      "ĠSist": 7967,
      "Ġdatab": 7968,
      "ĠFylkesmannen": 7969,
      "Ġfork": 7970,
      "Ġnysgjer": 7971,
      "iness": 7972,
      "ĠEvent": 7973,
      "ĠFelles": 7974,
      "irur": 7975,
      "Ġallikevel": 7976,
      "skerne": 7977,
      "helset": 7978,
      "Ġbag": 7979,
      "ĠÃ¸ye": 7980,
      "Ġlengde": 7981,
      "Ġarbeidsplasser": 7982,
      "ĠfÃ¸lges": 7983,
      "Ġvegg": 7984,
      "ysi": 7985,
      "elor": 7986,
      "ĠforsÃ¸kte": 7987,
      "sprosessen": 7988,
      "skontroll": 7989,
      "Ġkjennskap": 7990,
      "Ġidentifisere": 7991,
      "ĠordfÃ¸rer": 7992,
      "aga": 7993,
      "inga": 7994,
      "visor": 7995,
      "Ġlatter": 7996,
      "ĠLund": 7997,
      "ico": 7998,
      "dommene": 7999,
      "Ġbein": 8000,
      "Ġtaket": 8001,
      "Ġbeting": 8002,
      "medlem": 8003,
      "Ġpresenterer": 8004,
      "Ġstoffer": 8005,
      "Ġavis": 8006,
      "Ġdivisjon": 8007,
      "ĠKa": 8008,
      "Â»-": 8009,
      "ĠÃ¸yeblikket": 8010,
      "ĠSpesielt": 8011,
      "Min": 8012,
      "ĠbyrÃ¥": 8013,
      "ĠlÃ¸pende": 8014,
      "ĠðŁĻ": 8015,
      "Ġmister": 8016,
      "styre": 8017,
      "ografer": 8018,
      "Ð¸": 8019,
      "ano": 8020,
      "ĠforeslÃ¥r": 8021,
      "Ġgaver": 8022,
      "Ġtrav": 8023,
      "resten": 8024,
      "ĠDamer": 8025,
      "ĠKjell": 8026,
      "Ġsmil": 8027,
      "byrÃ¥": 8028,
      "ting": 8029,
      "elde": 8030,
      "ENT": 8031,
      "ikter": 8032,
      "Ġsildenafil": 8033,
      "Ġplassering": 8034,
      "Ġmuskel": 8035,
      "sider": 8036,
      "Ġinngang": 8037,
      "Ġsammenligne": 8038,
      "fond": 8039,
      "aktiviteter": 8040,
      "kjennelse": 8041,
      "ĠRÃ¸": 8042,
      "Ġandelen": 8043,
      "Ġulovlig": 8044,
      "Ġfabri": 8045,
      "ennene": 8046,
      "Ġtemaer": 8047,
      "Ġfasc": 8048,
      "Ġformen": 8049,
      "Ġup": 8050,
      "Ġfaktum": 8051,
      "ĠnÃ¦ringslivet": 8052,
      "ĠpÃ¥legg": 8053,
      "anserte": 8054,
      "band": 8055,
      "ituasjonen": 8056,
      "Ġfokusere": 8057,
      "ĠdrÃ¸mmer": 8058,
      "Ġdepresjon": 8059,
      "Ġomtalt": 8060,
      "Ġfing": 8061,
      "Hvor": 8062,
      "jor": 8063,
      "menne": 8064,
      "Ġinnvil": 8065,
      "Ġil": 8066,
      "Ġstilles": 8067,
      "Ġplanlegger": 8068,
      "Ġskred": 8069,
      "Ġalli": 8070,
      "forsvar": 8071,
      "ĠâĢ¢": 8072,
      "ktoren": 8073,
      "rup": 8074,
      "ordaland": 8075,
      "Ġknulle": 8076,
      "Ġkongen": 8077,
      "Ġetablerte": 8078,
      "Ġ;)": 8079,
      "ĠLegg": 8080,
      "avisen": 8081,
      "Ġsving": 8082,
      "Ġfasts": 8083,
      "Ġdyktige": 8084,
      "Ġproduserer": 8085,
      "Ġenorme": 8086,
      "Ġnyeste": 8087,
      "ze": 8088,
      "esenter": 8089,
      "ĠGjÃ¸r": 8090,
      "Ġtapt": 8091,
      "Ġbeveger": 8092,
      "Ġtung": 8093,
      "obby": 8094,
      "Ã¸vrig": 8095,
      "hl": 8096,
      "yp": 8097,
      "Ġkant": 8098,
      "ĠAir": 8099,
      "Ġfinansiering": 8100,
      "Ġjevnt": 8101,
      "Ġgutta": 8102,
      "Ġunderstreker": 8103,
      "grepet": 8104,
      "Ġtiltre": 8105,
      "Ġras": 8106,
      "Ġfanget": 8107,
      "siktige": 8108,
      "ĠNils": 8109,
      "ĠTrÃ¸ndelag": 8110,
      "ĠhÃ¸g": 8111,
      "udsjettet": 8112,
      "orth": 8113,
      "Ġlandskap": 8114,
      "Ġdiskutere": 8115,
      "Ġutbygging": 8116,
      "ĠEskorte": 8117,
      "ĠKOMM": 8118,
      "Ġtilfellet": 8119,
      "ĠFÃ¸lgende": 8120,
      "lest": 8121,
      "ĠBib": 8122,
      "anna": 8123,
      "Ġstatsminister": 8124,
      "Ġbehandler": 8125,
      "Ġbalanse": 8126,
      "kreft": 8127,
      "ful": 8128,
      "ĠFjell": 8129,
      "Ny": 8130,
      "Ġhd": 8131,
      "egler": 8132,
      "âĢ¢": 8133,
      "Ġanalys": 8134,
      "Ġkoble": 8135,
      "Ġtunge": 8136,
      "iment": 8137,
      "Ġdis": 8138,
      "ĠutÃ¸vere": 8139,
      "Ġbetong": 8140,
      "bÃ¥t": 8141,
      "Ġtyder": 8142,
      "Ġeventuell": 8143,
      "Ġmuseum": 8144,
      "egger": 8145,
      "ĠSan": 8146,
      "Ġkonsert": 8147,
      "ĠUnn": 8148,
      "Ġprofiler": 8149,
      "Ġmaskiner": 8150,
      "ĠfullfÃ¸rt": 8151,
      "rerer": 8152,
      "ĠRobert": 8153,
      "Ġoppfylle": 8154,
      "vind": 8155,
      "Ġagg": 8156,
      "Ġvaks": 8157,
      "kkede": 8158,
      "sperson": 8159,
      "ĠGl": 8160,
      "Ġyt": 8161,
      "merika": 8162,
      "ĠPedersen": 8163,
      "Ġimm": 8164,
      "Ġnedsatt": 8165,
      "ĠhÃ¥pet": 8166,
      "!!!": 8167,
      "Ġspeil": 8168,
      "ĠPub": 8169,
      "ugust": 8170,
      "Ġdukket": 8171,
      "Ġforetre": 8172,
      "Ġmidlertidig": 8173,
      "abet": 8174,
      "iftelsen": 8175,
      "Ã¥pentligvis": 8176,
      "sats": 8177,
      "ĠPark": 8178,
      "Ġaktuelt": 8179,
      "Ġsamtaler": 8180,
      "Ġbeskrive": 8181,
      "Ġprog": 8182,
      "ĠkjÃ¸le": 8183,
      "Ġoppfatning": 8184,
      "Ġfacebook": 8185,
      "ektet": 8186,
      "fakt": 8187,
      "Ġutgift": 8188,
      "Ġbegrepet": 8189,
      "Ġnyhetsb": 8190,
      "Agder": 8191,
      "amed": 8192,
      "Ġtanken": 8193,
      "Ġnorges": 8194,
      "appe": 8195,
      "Ġoppleves": 8196,
      "Ġepost": 8197,
      "okol": 8198,
      "Ġdypt": 8199,
      "Ġfremmed": 8200,
      "obbing": 8201,
      "Ġplate": 8202,
      "Ġavholdt": 8203,
      "industrien": 8204,
      "batter": 8205,
      "meter": 8206,
      "seier": 8207,
      "anda": 8208,
      "Ġsamarbeider": 8209,
      "Ġforventes": 8210,
      "Ã´r": 8211,
      "ĠforÃ¥r": 8212,
      "kkere": 8213,
      "anny": 8214,
      "haver": 8215,
      "Ġbryte": 8216,
      "Ġassist": 8217,
      "ĠmÃ¸teplass": 8218,
      "47": 8219,
      "Ġleir": 8220,
      "ani": 8221,
      "ĠNav": 8222,
      "Ġgrensen": 8223,
      "Ġeksper": 8224,
      "Ġbade": 8225,
      "Ġsamhandling": 8226,
      "Ġmusik": 8227,
      "Ġtyng": 8228,
      "igen": 8229,
      "Ġevt": 8230,
      "Ġstopper": 8231,
      "55": 8232,
      "Ġstraks": 8233,
      "HF": 8234,
      "Ġforstyr": 8235,
      "ĠgÃ¥rden": 8236,
      "Ġfirma": 8237,
      "kninger": 8238,
      "ĠVin": 8239,
      "ulert": 8240,
      "ave": 8241,
      "ystem": 8242,
      "Ġreaksjon": 8243,
      "otter": 8244,
      "sme": 8245,
      "SP": 8246,
      "Ġfien": 8247,
      "Ġbarns": 8248,
      "ubben": 8249,
      "Ġshow": 8250,
      "Ġekspert": 8251,
      "Ġsamtlige": 8252,
      "Ġorganisering": 8253,
      "ordningen": 8254,
      "Ġhistorisk": 8255,
      "dra": 8256,
      "ora": 8257,
      "Ġcont": 8258,
      "Ġkommunisere": 8259,
      "OLL": 8260,
      "penger": 8261,
      "Ġatmosf": 8262,
      "fÃ¸d": 8263,
      "ĠÃ¥rsmÃ¸tet": 8264,
      "Ġkapital": 8265,
      "Ġflyktninger": 8266,
      "Ġkapit": 8267,
      "omet": 8268,
      "ĠEM": 8269,
      "Ġiv": 8270,
      "Ġspurt": 8271,
      "Ġsinn": 8272,
      "ksjonene": 8273,
      "ssystemet": 8274,
      "virke": 8275,
      "gruppa": 8276,
      "rine": 8277,
      "Ġforurens": 8278,
      "Ġgal": 8279,
      "sbru": 8280,
      "Ġsikte": 8281,
      "ĠmilitÃ¦re": 8282,
      "Ġungdommer": 8283,
      "egging": 8284,
      "ugen": 8285,
      "styring": 8286,
      "Ġrussisk": 8287,
      "ĠnÃ¸kkel": 8288,
      "Tid": 8289,
      "Ġendres": 8290,
      "anp": 8291,
      "sper": 8292,
      "âĢĭ": 8293,
      "Ġegner": 8294,
      "Ġfyller": 8295,
      "Ġelektriske": 8296,
      "Ġeksplo": 8297,
      "ĠhÃ¸rte": 8298,
      "AC": 8299,
      "Ġrollen": 8300,
      "delse": 8301,
      "Ġtrist": 8302,
      "Ġhendene": 8303,
      "ĠTelemark": 8304,
      "illere": 8305,
      "strand": 8306,
      "fÃ¸dt": 8307,
      "ĠOper": 8308,
      "ards": 8309,
      "Ġforsvinner": 8310,
      "ĠðŁĻĤ": 8311,
      "circa": 8312,
      "Ġmedie": 8313,
      "Ġoppdatere": 8314,
      "ĠEllers": 8315,
      "cu": 8316,
      "Ġkonsentrasjon": 8317,
      "likasjoner": 8318,
      "undersÃ¸kelser": 8319,
      "Ġbind": 8320,
      "Ġglemme": 8321,
      "Ġbrutt": 8322,
      "ktes": 8323,
      "bÃ¥nd": 8324,
      "Ġfris": 8325,
      "Ġbarnevernet": 8326,
      "ĠVenn": 8327,
      "Ġeksamen": 8328,
      "Ġtilknyttet": 8329,
      "ĠAB": 8330,
      "smessige": 8331,
      "institusjoner": 8332,
      "Ġsikkerhets": 8333,
      "Ġlykke": 8334,
      "besk": 8335,
      "Ġoverskudd": 8336,
      "Ã¦l": 8337,
      "ĠUN": 8338,
      "ĠhÃ¸yest": 8339,
      "ĠhÃ¸res": 8340,
      "egnet": 8341,
      "Ġ65": 8342,
      "Ġhjelpemid": 8343,
      "Ġscene": 8344,
      "stille": 8345,
      "sborg": 8346,
      "design": 8347,
      "Ġaktiver": 8348,
      "Ġframover": 8349,
      "orks": 8350,
      "ĠforespÃ¸r": 8351,
      "Ġservic": 8352,
      "porno": 8353,
      "que": 8354,
      "reise": 8355,
      "smu": 8356,
      "nÃ¦ring": 8357,
      "Ġgo": 8358,
      "ĠNS": 8359,
      "Ġbeina": 8360,
      "Ġsoldater": 8361,
      "Ġfront": 8362,
      "Ġoppgavene": 8363,
      "ÃĨ": 8364,
      "legen": 8365,
      "Ġsakene": 8366,
      "Ġlesbiske": 8367,
      "ĠstrÃ¸k": 8368,
      "ness": 8369,
      "ĠFakt": 8370,
      "Ġsnu": 8371,
      "ĠHeldigvis": 8372,
      "Ġlytte": 8373,
      "elin": 8374,
      "Ġsms": 8375,
      "Ġfriske": 8376,
      "ĠvÃ¦ret": 8377,
      "Ġarbeidstakere": 8378,
      "Ġhelga": 8379,
      "ĠstÃ¥ende": 8380,
      "klin": 8381,
      "Ġspilles": 8382,
      "Ġteknikk": 8383,
      "ĠKvinne": 8384,
      "ynte": 8385,
      "Ġendrer": 8386,
      "100": 8387,
      "spunktet": 8388,
      "Ġsatse": 8389,
      "nevnt": 8390,
      "Ġkontakte": 8391,
      "Ġutdannet": 8392,
      "ĠJap": 8393,
      "Ġleste": 8394,
      "Ġarrangementer": 8395,
      "Ġpleier": 8396,
      "ĠAndersen": 8397,
      "Ġalderen": 8398,
      "Ġhumor": 8399,
      "Ġnark": 8400,
      "Ġplanter": 8401,
      "esen": 8402,
      "ĠKor": 8403,
      "Ġtallene": 8404,
      "Ġevaluering": 8405,
      "Ġadresse": 8406,
      "anpix": 8407,
      "Ġmedisiner": 8408,
      "Ġbyttet": 8409,
      "fir": 8410,
      "Ġdron": 8411,
      "ĠDon": 8412,
      "Ġmusikken": 8413,
      "ĠfornÃ¸yde": 8414,
      "ĠKart": 8415,
      "Ã¸nsberg": 8416,
      "ĠOnline": 8417,
      "UL": 8418,
      "muse": 8419,
      "Ġfastsatt": 8420,
      "ney": 8421,
      "Ġsynd": 8422,
      "Ġholdninger": 8423,
      "spillere": 8424,
      "ĠGeir": 8425,
      "Ġneppe": 8426,
      "Ġopplevelsen": 8427,
      "ĠYou": 8428,
      "adalafil": 8429,
      "blÃ¥": 8430,
      "Ã¥det": 8431,
      "ĠÃ¸verste": 8432,
      "Ġforhindre": 8433,
      "Ġbygging": 8434,
      "ĠUndersÃ¸k": 8435,
      "ĠMc": 8436,
      "avdelingen": 8437,
      "Ġfremfor": 8438,
      "stolen": 8439,
      "Ġengelske": 8440,
      "Ġbib": 8441,
      "Ġnordiske": 8442,
      "ump": 8443,
      "ary": 8444,
      "ĠAnna": 8445,
      "ografiske": 8446,
      "2011": 8447,
      "regi": 8448,
      "Ġmenings": 8449,
      "Ġglobale": 8450,
      "Ġhavn": 8451,
      "Ġreaksjoner": 8452,
      "ĠRad": 8453,
      "Ġjevnlig": 8454,
      "ĠnÃ¦re": 8455,
      "Ġhenven": 8456,
      "ĠAgder": 8457,
      "Ġstiftet": 8458,
      "ec": 8459,
      "fallet": 8460,
      "LING": 8461,
      "bi": 8462,
      "ĠBlir": 8463,
      "ĠlÃ¦rings": 8464,
      "Ġmorsomme": 8465,
      "Ġhet": 8466,
      "ĠNes": 8467,
      "Ġrunder": 8468,
      "ĠTore": 8469,
      "ĠMarit": 8470,
      "Ġkok": 8471,
      "Ã¸konom": 8472,
      "ĠAkt": 8473,
      "Ġkorrekt": 8474,
      "Ġnavig": 8475,
      "ĠJacob": 8476,
      "Ġmoden": 8477,
      "Ġprosjektleder": 8478,
      "Ġtjener": 8479,
      "jernen": 8480,
      "Ġparti": 8481,
      "Ġnoveller": 8482,
      "hagen": 8483,
      "ĠtÃ¥r": 8484,
      "ĠlÃ¸st": 8485,
      "mord": 8486,
      "ĠsÃ¸kes": 8487,
      "ĠRegjeringen": 8488,
      "Ã¸ve": 8489,
      "ommere": 8490,
      "Ġimponerende": 8491,
      "Hvordan": 8492,
      "Ġklassiske": 8493,
      "Ġforsvarlig": 8494,
      "ĠpÃ¥lit": 8495,
      "Ã¸yen": 8496,
      "spar": 8497,
      "Ġyour": 8498,
      "Ġforbundet": 8499,
      "Ġoppdatering": 8500,
      "Polit": 8501,
      "Ġbelig": 8502,
      "setningen": 8503,
      "Ġplante": 8504,
      "Ġregistrerte": 8505,
      "core": 8506,
      "Ġstatlige": 8507,
      "Ġtillits": 8508,
      "vo": 8509,
      "ĠmedfÃ¸re": 8510,
      "Ġutenriks": 8511,
      "Ġknapt": 8512,
      "Ġreduserer": 8513,
      "Ġfoster": 8514,
      "kapital": 8515,
      "Ġfange": 8516,
      "Ġstu": 8517,
      "Ġskifte": 8518,
      "ulen": 8519,
      "administrasjon": 8520,
      "Ġscenen": 8521,
      "Ġutfyl": 8522,
      "Ġdetalj": 8523,
      "Ġkro": 8524,
      "Ġkult": 8525,
      "Ġnettverket": 8526,
      "Ġ44": 8527,
      "stur": 8528,
      "test": 8529,
      "Ġmotsatt": 8530,
      "ĠKommunest": 8531,
      "ĠKOMMUN": 8532,
      "Nord": 8533,
      "Ġgenerasjon": 8534,
      "ĠFotball": 8535,
      "Ġparter": 8536,
      "Ġlaveste": 8537,
      "Ġhoppe": 8538,
      "blemet": 8539,
      "Gr": 8540,
      "skade": 8541,
      "Ġsamliv": 8542,
      "Ġkjendis": 8543,
      "EK": 8544,
      "lic": 8545,
      "ĠAk": 8546,
      "Ġmuligens": 8547,
      "Ġboligen": 8548,
      "ralia": 8549,
      "ĠEi": 8550,
      "Ġetablering": 8551,
      "oe": 8552,
      "anere": 8553,
      "tein": 8554,
      "ames": 8555,
      "veiled": 8556,
      "feranser": 8557,
      "God": 8558,
      "jÃ¸p": 8559,
      "ĠstÃ¸ttet": 8560,
      "Ġkose": 8561,
      "ĠTerje": 8562,
      "ĠFormannskap": 8563,
      "Ġomgivelser": 8564,
      "dater": 8565,
      "Ã¸dvendig": 8566,
      "Ġtrakk": 8567,
      "Ġadcirca": 8568,
      "Ġredeg": 8569,
      "Ġprodusenter": 8570,
      "ĠsjÃ¸en": 8571,
      "ĠsÃ¸knader": 8572,
      "sprosjekter": 8573,
      "selskapet": 8574,
      "ĠKommunen": 8575,
      "Ġirri": 8576,
      "ĠRev": 8577,
      "Ġstengt": 8578,
      "ĠResultatet": 8579,
      "asj": 8580,
      "Ġ1980": 8581,
      "Ġguide": 8582,
      "vendelse": 8583,
      "Ġsenest": 8584,
      "Ã¸yer": 8585,
      "Ġklubber": 8586,
      "vika": 8587,
      "Ġlagene": 8588,
      "ĠmÃ¥lene": 8589,
      "Ġveget": 8590,
      "Ġtilfredsstil": 8591,
      "Ġbens": 8592,
      "ĠRis": 8593,
      "ĠGer": 8594,
      "Ġinnvandrere": 8595,
      "NS": 8596,
      "Ġmunt": 8597,
      "anner": 8598,
      "Ġslutter": 8599,
      "ĠNB": 8600,
      "Ġdildo": 8601,
      "ĠÃħs": 8602,
      "yting": 8603,
      "ĠSandnes": 8604,
      "Bar": 8605,
      "ĠPrem": 8606,
      "ĠgjennomfÃ¸rte": 8607,
      "Ġforberedt": 8608,
      "ska": 8609,
      "spr": 8610,
      "Ġfisker": 8611,
      "sstill": 8612,
      "ensikten": 8613,
      "reft": 8614,
      "ĠdÃ¸g": 8615,
      "Ġbekrefter": 8616,
      "bÃ¸": 8617,
      "melt": 8618,
      "Ġkull": 8619,
      "valget": 8620,
      "ĠMedlem": 8621,
      "Ġstab": 8622,
      "havet": 8623,
      "bordet": 8624,
      "Ġbryster": 8625,
      "ksomheten": 8626,
      "pon": 8627,
      "Ġbehagelig": 8628,
      "Ġbasis": 8629,
      "ĠpÃ¥virket": 8630,
      "Ġformidle": 8631,
      "varen": 8632,
      "kjenne": 8633,
      "ĠtiÃ¥r": 8634,
      "hu": 8635,
      "ikkel": 8636,
      "Ġingredi": 8637,
      "To": 8638,
      "Ġifra": 8639,
      "Ġplag": 8640,
      "ĠHav": 8641,
      "oga": 8642,
      "kampen": 8643,
      "ĠBÃ¸r": 8644,
      "ower": 8645,
      "Norges": 8646,
      "analyse": 8647,
      "krav": 8648,
      "mest": 8649,
      "ĠSven": 8650,
      "Ġsvanger": 8651,
      "otika": 8652,
      "vannet": 8653,
      "Ġop": 8654,
      "Ġvardenafil": 8655,
      "Ġklager": 8656,
      "Ġforutsetninger": 8657,
      "ĠMicrosoft": 8658,
      "ilige": 8659,
      "Ġutfordringene": 8660,
      "Ġhelhetlig": 8661,
      "Ġkjedelig": 8662,
      "ellig": 8663,
      "ĠOfte": 8664,
      "Ġlokaler": 8665,
      "Ġblogger": 8666,
      "kontakt": 8667,
      "ĠBuskerud": 8668,
      "Ġsanger": 8669,
      "ilbud": 8670,
      "Ġbegrense": 8671,
      "ĠSveinmain": 8672,
      "Ġperspektiv": 8673,
      "fred": 8674,
      "burg": 8675,
      "Ġklim": 8676,
      "AND": 8677,
      "bake": 8678,
      "Ġuv": 8679,
      "Ġlad": 8680,
      "ypt": 8681,
      "arden": 8682,
      "Ġforvente": 8683,
      "Ã¸yd": 8684,
      "Ġskritt": 8685,
      "Ġhttp": 8686,
      "forum": 8687,
      "pos": 8688,
      "Ã¥ten": 8689,
      "Ġvariere": 8690,
      "jempe": 8691,
      "Ġregelverk": 8692,
      "ystemet": 8693,
      "iva": 8694,
      "stisk": 8695,
      "Ġutbygg": 8696,
      "Ġkrefter": 8697,
      "ĠMang": 8698,
      "Ġbla": 8699,
      "seth": 8700,
      "profil": 8701,
      "represent": 8702,
      "Ġtankene": 8703,
      "500": 8704,
      "bestemm": 8705,
      "Ġ46": 8706,
      "fast": 8707,
      "ition": 8708,
      "Ġ250": 8709,
      "Ġpotensielle": 8710,
      "Ġreist": 8711,
      "ĠWh": 8712,
      "ĠÃħp": 8713,
      "Ġapps": 8714,
      "ĠStein": 8715,
      "Ġspen": 8716,
      "kortet": 8717,
      "ĠÃ¸verst": 8718,
      "ĠLin": 8719,
      "Ġleilighet": 8720,
      "Disse": 8721,
      "ravÃ¦r": 8722,
      "akkert": 8723,
      "Ġavslut": 8724,
      "Ġunderholdning": 8725,
      "ĠJak": 8726,
      "Ġtilbakemelding": 8727,
      "Ġhavnet": 8728,
      "ĠrengjÃ¸ring": 8729,
      "Ad": 8730,
      "wood": 8731,
      "illi": 8732,
      "Ġstyres": 8733,
      "Ġintegrert": 8734,
      "ding": 8735,
      "neser": 8736,
      "Ġforutsetning": 8737,
      "Ġtypisk": 8738,
      "aldt": 8739,
      "Ġkalle": 8740,
      "Ġkaldt": 8741,
      "Ġmottak": 8742,
      "Ġforleng": 8743,
      "sesongen": 8744,
      "Ġdefinitivt": 8745,
      "ĠIP": 8746,
      "Ġvitne": 8747,
      "Ġgarantert": 8748,
      "Ġ47": 8749,
      "ressur": 8750,
      "sty": 8751,
      "ĠSlike": 8752,
      "Ġleger": 8753,
      "Ġarg": 8754,
      "Ġtrykke": 8755,
      "Ġjorden": 8756,
      "ĠRÃ¸r": 8757,
      "ĠLever": 8758,
      "Ġdeleg": 8759,
      "Ġutvikles": 8760,
      "ouse": 8761,
      "Ġmorgenen": 8762,
      "ĠByg": 8763,
      "rent": 8764,
      "Ġdrives": 8765,
      "rÃ¸d": 8766,
      "Ġlagret": 8767,
      "Ġriks": 8768,
      "Ġforenk": 8769,
      "Ġdannet": 8770,
      "atÃ¸r": 8771,
      "Ġoppgir": 8772,
      "ĠLarsen": 8773,
      "Ġstk": 8774,
      "INN": 8775,
      "stitusjon": 8776,
      "Ġvokste": 8777,
      "hone": 8778,
      "ripe": 8779,
      "smark": 8780,
      "ĠsexleketÃ¸y": 8781,
      "Ġhusk": 8782,
      "Ġstrikke": 8783,
      "Ġoppsummer": 8784,
      "esult": 8785,
      "Ġsunt": 8786,
      "Ġskinn": 8787,
      "Ġbryter": 8788,
      "ĠFinans": 8789,
      "Ġkoste": 8790,
      "ituasjon": 8791,
      "Ch": 8792,
      "ppel": 8793,
      "Ġavtalt": 8794,
      "viten": 8795,
      "Ġsamarbeidspartnere": 8796,
      "ĠStrÃ¸m": 8797,
      "Ġbanken": 8798,
      "Ġsatser": 8799,
      "ail": 8800,
      "eper": 8801,
      "stider": 8802,
      "ĠFisk": 8803,
      "Ġgrat": 8804,
      "forslag": 8805,
      "bygd": 8806,
      "cer": 8807,
      "Ã¥sen": 8808,
      "Ġlivsstil": 8809,
      "Ġkollega": 8810,
      "Ġreklame": 8811,
      "ĠElis": 8812,
      "Ġunderlagt": 8813,
      "Ġlaks": 8814,
      "ĠKun": 8815,
      "Ġfinalen": 8816,
      "grammer": 8817,
      "Ġoftere": 8818,
      "skort": 8819,
      "ddet": 8820,
      "lar": 8821,
      "ford": 8822,
      "Ġforbudt": 8823,
      "ĠHamar": 8824,
      "Ġinvesteringer": 8825,
      "ble": 8826,
      "bro": 8827,
      "48": 8828,
      "ÑĤ": 8829,
      "ãģ": 8830,
      "fÃ¸lelse": 8831,
      "Ġliggende": 8832,
      "meldt": 8833,
      "Ġkosthold": 8834,
      "Ġskutt": 8835,
      "ĠTotalt": 8836,
      "Ver": 8837,
      "ware": 8838,
      "spesi": 8839,
      "Ġkomplett": 8840,
      "Ġsmerter": 8841,
      "FOR": 8842,
      "bal": 8843,
      "Ã¥ter": 8844,
      "mi": 8845,
      "now": 8846,
      "ĠEscort": 8847,
      "Ġoverlev": 8848,
      "Ġangrepet": 8849,
      "Ġseksuell": 8850,
      "lÃ¸k": 8851,
      "Ġoppm": 8852,
      "ĠKol": 8853,
      "Ġ600": 8854,
      "ĠKrF": 8855,
      "stjenesten": 8856,
      "ĠTek": 8857,
      "Ġvillig": 8858,
      "stitu": 8859,
      "vig": 8860,
      "Ġtenk": 8861,
      "Ġprisene": 8862,
      "ĠJohansen": 8863,
      "**": 8864,
      "ĠvedrÃ¸rende": 8865,
      "Ġteknologien": 8866,
      "Ġfylkeskommune": 8867,
      "Ġsvaret": 8868,
      "ATO": 8869,
      "Â¸": 8870,
      "spo": 8871,
      "Ġbarnets": 8872,
      "Ã¸tter": 8873,
      "Ġheng": 8874,
      "allene": 8875,
      "Ġgarn": 8876,
      "ii": 8877,
      "Ġille": 8878,
      "edy": 8879,
      "gjorde": 8880,
      "ĠWorld": 8881,
      "ĠtÃ¥ler": 8882,
      "ollege": 8883,
      "utviklingen": 8884,
      "lÃ¸sninger": 8885,
      "shemmede": 8886,
      "Ġhage": 8887,
      "ĠJe": 8888,
      "Ġanskaff": 8889,
      "Ġlyse": 8890,
      "Ġdiskrimin": 8891,
      "Ġomsetning": 8892,
      "Ã¼n": 8893,
      "Ġtadalafil": 8894,
      "Ġhagen": 8895,
      "âĢľ": 8896,
      "Ġveggen": 8897,
      "Ġsalgs": 8898,
      "umin": 8899,
      "OD": 8900,
      "deren": 8901,
      "Ġsees": 8902,
      "apper": 8903,
      "ĠVeldig": 8904,
      "ĠLen": 8905,
      "ineres": 8906,
      "Le": 8907,
      "Ġopptre": 8908,
      "Ġ1900": 8909,
      "ĠsÃ¸kt": 8910,
      "Ġhandlet": 8911,
      "Ġhevdet": 8912,
      "ĠRiksrevisjonens": 8913,
      "Ġveks": 8914,
      "Ġforretning": 8915,
      "Ġselges": 8916,
      "ums": 8917,
      "ĠÃ¥pnes": 8918,
      "Ġpartnere": 8919,
      "Ġshemale": 8920,
      "Ġokk": 8921,
      "ĠPS": 8922,
      "ĠEnkel": 8923,
      "Ġakutt": 8924,
      "ĠCarl": 8925,
      "jort": 8926,
      "andel": 8927,
      "oble": 8928,
      "Ġangst": 8929,
      "Ġkomb": 8930,
      "Ġhuman": 8931,
      "gis": 8932,
      "skar": 8933,
      "lerede": 8934,
      "Ġbebo": 8935,
      "ĠGul": 8936,
      "ĠhÃ¥pe": 8937,
      "Ġorgas": 8938,
      "Ġ42": 8939,
      "Ġbortsett": 8940,
      "Ġoppfylt": 8941,
      "Ġbarnehag": 8942,
      "ĠforeslÃ¥tt": 8943,
      "Ġharde": 8944,
      "ĠfravÃ¦r": 8945,
      "Ġsverige": 8946,
      "ĠKat": 8947,
      "ffe": 8948,
      "ĠstrÃ¥lende": 8949,
      "bit": 8950,
      "forel": 8951,
      "Ġfaget": 8952,
      "Ġsmartt": 8953,
      "Ġutgiv": 8954,
      "Ġetasje": 8955,
      "Ġgjelde": 8956,
      "ĠsÃ¸nnen": 8957,
      "Ġteori": 8958,
      "Ġvirkelighet": 8959,
      "ĠFinland": 8960,
      "inÃ¦r": 8961,
      "urset": 8962,
      "Ġargu": 8963,
      "pend": 8964,
      "elever": 8965,
      "Ġfakta": 8966,
      "tillit": 8967,
      "Ġkunnskapen": 8968,
      "Ġpenge": 8969,
      "Ġbarnd": 8970,
      "fiske": 8971,
      "hÃ¸g": 8972,
      "Ġhvitt": 8973,
      "kjÃ¸": 8974,
      "Ġutdannelse": 8975,
      "mÃ¸ter": 8976,
      "istens": 8977,
      "Ġseksjon": 8978,
      "slÃ¸s": 8979,
      "samlingen": 8980,
      "Ġ1998": 8981,
      "ĠgjennomfÃ¸rer": 8982,
      "ĠsÃ¸kere": 8983,
      "Ġkollekt": 8984,
      "Ġforbruk": 8985,
      "Ġinnbygger": 8986,
      "Ġitalien": 8987,
      "ĠSunn": 8988,
      "ssalen": 8989,
      "dannings": 8990,
      "Ġforfatteren": 8991,
      "grens": 8992,
      "Ġoppfyller": 8993,
      "Ġtrives": 8994,
      "Ġstakk": 8995,
      "Ġ1970": 8996,
      "Ġfortel": 8997,
      "Ġpersonlighet": 8998,
      "Ġrester": 8999,
      "Ġmodellen": 9000,
      "Ġrestauranter": 9001,
      "veksten": 9002,
      "Ġvarslet": 9003,
      "Ġovernatting": 9004,
      "Ġkast": 9005,
      "ĠNytt": 9006,
      "ĠtrÃ¦r": 9007,
      "Ġbeslutning": 9008,
      "Ġild": 9009,
      "itiv": 9010,
      "selskaper": 9011,
      "Ġstillingen": 9012,
      "cial": 9013,
      "nÃ¥": 9014,
      "ĠWindows": 9015,
      "Ġglemt": 9016,
      "Ġvivan": 9017,
      "Ġvarsel": 9018,
      "formid": 9019,
      "ionen": 9020,
      "Ġkunstnere": 9021,
      "ĠhÃ¸ring": 9022,
      "Ġspesifikke": 9023,
      "Ġhjemmelaget": 9024,
      "Ġvivanza": 9025,
      "Ġgjenstander": 9026,
      "Ġ1997": 9027,
      "Ġordentlig": 9028,
      "somrÃ¥der": 9029,
      "bw": 9030,
      "ĠBur": 9031,
      "ĠPolitiet": 9032,
      "elag": 9033,
      "ĠNed": 9034,
      "Ġmetall": 9035,
      "Ġtradisjonell": 9036,
      "Ġpent": 9037,
      "skvalitet": 9038,
      "Ġflinke": 9039,
      "Ġytelse": 9040,
      "Ġkreative": 9041,
      "strasjon": 9042,
      "slutning": 9043,
      "feil": 9044,
      "Ġdan": 9045,
      "ĠvÃ¥t": 9046,
      "ĠFamil": 9047,
      "iken": 9048,
      "Ġfantas": 9049,
      "ĠnivÃ¥er": 9050,
      "ĠInge": 9051,
      "esterett": 9052,
      "Ġkombinert": 9053,
      "-/": 9054,
      "Ber": 9055,
      "Ġreduseres": 9056,
      "Ġtittelen": 9057,
      "betaling": 9058,
      "ĠBrann": 9059,
      "ĠdÃ¸gnet": 9060,
      "OG": 9061,
      "fot": 9062,
      "Ġoffent": 9063,
      "organisasjonen": 9064,
      "AB": 9065,
      "vendt": 9066,
      "Ġtakke": 9067,
      "fÃ¸lger": 9068,
      "Ġforelsket": 9069,
      "Ġï": 9070,
      "Ġbesluttet": 9071,
      "Ġforank": 9072,
      "Ġavd": 9073,
      "Ġarbeidsliv": 9074,
      "roller": 9075,
      "Ġflo": 9076,
      "Ġpersonvern": 9077,
      "Ġadgang": 9078,
      "Ġimplemen": 9079,
      "ely": 9080,
      "ĠhÃ¸ytt": 9081,
      "Ġmaskinen": 9082,
      "reis": 9083,
      "historie": 9084,
      "Dagbladet": 9085,
      ",.": 9086,
      "elat": 9087,
      "Ġkunn": 9088,
      "ĠNi": 9089,
      "Ġtrafikken": 9090,
      "Ã¸nte": 9091,
      "Ġminer": 9092,
      "ĠlÃ¥t": 9093,
      "ĠVenstre": 9094,
      "Flere": 9095,
      "ĠrÃ¸dt": 9096,
      "irka": 9097,
      "IC": 9098,
      "Sel": 9099,
      "Ġgyldig": 9100,
      "ĠBeg": 9101,
      "ĠTim": 9102,
      "oph": 9103,
      "Ġvokst": 9104,
      "okolade": 9105,
      "Kon": 9106,
      "Ġkule": 9107,
      "ĠSP": 9108,
      "ĠBj": 9109,
      "oda": 9110,
      "Ġarrangeres": 9111,
      "ms": 9112,
      "bry": 9113,
      "stiske": 9114,
      "Ġselskapene": 9115,
      "Ġdebatten": 9116,
      "ĠundersÃ¸kt": 9117,
      "ĠSon": 9118,
      "lyd": 9119,
      "Ġarab": 9120,
      "Ġforfall": 9121,
      "Ġbyene": 9122,
      "OgsÃ¥": 9123,
      "ĠTwitter": 9124,
      "ĠAL": 9125,
      "elsens": 9126,
      "Ġfla": 9127,
      "Ġarkiv": 9128,
      "ikip": 9129,
      "Ġanmel": 9130,
      "Ġprosjektene": 9131,
      "ittil": 9132,
      "Ġforsvant": 9133,
      "Ġpresentasjon": 9134,
      "Ġinnflytelse": 9135,
      "Ġdansk": 9136,
      "engden": 9137,
      "ĠAnsvar": 9138,
      "Ġdekor": 9139,
      "ĠEN": 9140,
      "innlegg": 9141,
      "ĠLillehammer": 9142,
      "alistisk": 9143,
      "!)": 9144,
      "ĠVelkommen": 9145,
      "Ġlagring": 9146,
      "Ġgulvet": 9147,
      "Ġreag": 9148,
      "handlere": 9149,
      "Ġstyrer": 9150,
      "vitenskap": 9151,
      "besÃ¸k": 9152,
      "sdepartementet": 9153,
      "unk": 9154,
      "Ġtelefonen": 9155,
      "Ġtilbys": 9156,
      "musikk": 9157,
      "yrkia": 9158,
      "ĠHÃ¸r": 9159,
      "Ġukjente": 9160,
      "ĠSted": 9161,
      "ĠÃĺr": 9162,
      "ĠkjÃ¸nns": 9163,
      "skyld": 9164,
      "stasjonen": 9165,
      "ĠKrav": 9166,
      "Ġevner": 9167,
      "ĠvilkÃ¥rene": 9168,
      "ĠMagnus": 9169,
      "ĠutlÃ¸p": 9170,
      "Ġoppskrift": 9171,
      "omment": 9172,
      "Ġlangsiktig": 9173,
      "Ġfortjener": 9174,
      "ĠkÃ¥te": 9175,
      "odd": 9176,
      "ĠLÃ¸": 9177,
      "Ġpreg": 9178,
      "Ġbunnen": 9179,
      "ĠsprÃ¥ket": 9180,
      "Ġarv": 9181,
      "Ġstolte": 9182,
      "air": 9183,
      "Ġflytter": 9184,
      "Ġdeltag": 9185,
      "Ġberg": 9186,
      "Ġskapte": 9187,
      "frie": 9188,
      "ĠhÃ¥ndtering": 9189,
      "Ġmere": 9190,
      "ĠHeg": 9191,
      "rÃ¥der": 9192,
      "Ġkalender": 9193,
      "Ġpasset": 9194,
      "Ġasiatisk": 9195,
      "Ġfalle": 9196,
      "Ġmottok": 9197,
      "Ġinnbyggerne": 9198,
      "ĠStandard": 9199,
      "bot": 9200,
      "Ġlyset": 9201,
      "problemer": 9202,
      "kurranse": 9203,
      "oss": 9204,
      "Ġbror": 9205,
      "Ġutstyret": 9206,
      "Ġrehabilitering": 9207,
      "Ġdynam": 9208,
      "ĠAftenposten": 9209,
      "voll": 9210,
      "ĠFormÃ¥let": 9211,
      "itasjon": 9212,
      "Ġgleden": 9213,
      "ĠForslag": 9214,
      "ianter": 9215,
      "Ġforlate": 9216,
      "Ġasiatiske": 9217,
      "ĠSjÃ¸": 9218,
      "Ġblikk": 9219,
      "Ġprat": 9220,
      "lima": 9221,
      "ĠÂ»": 9222,
      "Ġspeed": 9223,
      "Ġvakkert": 9224,
      "rator": 9225,
      "ĠVideo": 9226,
      "kons": 9227,
      "Ġkyl": 9228,
      "klare": 9229,
      "Ġsammenlik": 9230,
      "ĠSÃ¦": 9231,
      "ĠSett": 9232,
      "jeller": 9233,
      "Ġvirkelige": 9234,
      "sanlegg": 9235,
      "Ġstudi": 9236,
      "ĠSos": 9237,
      "Ġanti": 9238,
      "banken": 9239,
      "Ġtilfredsstill": 9240,
      "rukket": 9241,
      "Ġalternative": 9242,
[...]
